{
  "version": "1.0",
  "truncation": null,
  "padding": null,
  "added_tokens": [
    {
      "id": 0,
      "content": "<START>",
      "single_word": false,
      "lstrip": false,
      "rstrip": false,
      "normalized": false,
      "special": true
    },
    {
      "id": 1,
      "content": "<END>",
      "single_word": false,
      "lstrip": false,
      "rstrip": false,
      "normalized": false,
      "special": true
    },
    {
      "id": 2,
      "content": "<PAD>",
      "single_word": false,
      "lstrip": false,
      "rstrip": false,
      "normalized": false,
      "special": true
    },
    {
      "id": 3,
      "content": "<UNK>",
      "single_word": false,
      "lstrip": false,
      "rstrip": false,
      "normalized": false,
      "special": true
    },
    {
      "id": 4,
      "content": "<SEP>",
      "single_word": false,
      "lstrip": false,
      "rstrip": false,
      "normalized": false,
      "special": true
    },
    {
      "id": 5,
      "content": "<CLS>",
      "single_word": false,
      "lstrip": false,
      "rstrip": false,
      "normalized": false,
      "special": true
    },
    {
      "id": 6,
      "content": "<MASK>",
      "single_word": false,
      "lstrip": false,
      "rstrip": false,
      "normalized": false,
      "special": true
    }
  ],
  "normalizer": null,
  "pre_tokenizer": {
    "type": "Whitespace"
  },
  "post_processor": null,
  "decoder": null,
  "model": {
    "type": "BPE",
    "dropout": null,
    "unk_token": "<UNK>",
    "continuing_subword_prefix": null,
    "end_of_word_suffix": null,
    "fuse_unk": false,
    "byte_fallback": false,
    "vocab": {
      "<START>": 0,
      "<END>": 1,
      "<PAD>": 2,
      "<UNK>": 3,
      "<SEP>": 4,
      "<CLS>": 5,
      "<MASK>": 6,
      "a": 7,
      "b": 8,
      "c": 9,
      "d": 10,
      "e": 11,
      "f": 12,
      "g": 13,
      "h": 14,
      "i": 15,
      "j": 16,
      "k": 17,
      "l": 18,
      "m": 19,
      "n": 20,
      "o": 21,
      "p": 22,
      "q": 23,
      "r": 24,
      "s": 25,
      "t": 26,
      "u": 27,
      "v": 28,
      "w": 29,
      "x": 30,
      "y": 31,
      "z": 32,
      "ch": 33,
      "er": 34,
      "en": 35,
      "ich": 36,
      "in": 37,
      "to": 38,
      "is": 39,
      "tom": 40,
      "ha": 41,
      "ie": 42,
      "es": 43,
      "an": 44,
      "as": 45,
      "it": 46,
      "ou": 47,
      "ist": 48,
      "he": 49,
      "ein": 50,
      "re": 51,
      "ge": 52,
      "you": 53,
      "st": 54,
      "be": 55,
      "ll": 56,
      "ir": 57,
      "sie": 58,
      "on": 59,
      "ar": 60,
      "te": 61,
      "un": 62,
      "au": 63,
      "me": 64,
      "le": 65,
      "se": 66,
      "hat": 67,
      "im": 68,
      "das": 69,
      "sch": 70,
      "or": 71,
      "icht": 72,
      "we": 73,
      "ing": 74,
      "ver": 75,
      "ma": 76,
      "nicht": 77,
      "ed": 78,
      "ig": 79,
      "ho": 80,
      "no": 81,
      "du": 82,
      "de": 83,
      "wir": 84,
      "ve": 85,
      "do": 86,
      "lo": 87,
      "ne": 88,
      "wer": 89,
      "ke": 90,
      "ur": 91,
      "at": 92,
      "bin": 93,
      "ck": 94,
      "id": 95,
      "ih": 96,
      "her": 97,
      "the": 98,
      "us": 99,
      "was": 100,
      "tr": 101,
      "al": 102,
      "fe": 103,
      "zu": 104,
      "am": 105,
      "th": 106,
      "om": 107,
      "go": 108,
      "ier": 109,
      "all": 110,
      "ind": 111,
      "ben": 112,
      "gen": 113,
      "war": 114,
      "ach": 115,
      "den": 116,
      "ill": 117,
      "ann": 118,
      "auf": 119,
      "eine": 120,
      "mich": 121,
      "habe": 122,
      "geh": 123,
      "that": 124,
      "mir": 125,
      "can": 126,
      "are": 127,
      "die": 128,
      "ut": 129,
      "ay": 130,
      "lie": 131,
      "ro": 132,
      "co": 133,
      "li": 134,
      "uch": 135,
      "mach": 136,
      "so": 137,
      "ges": 138,
      "ont": 139,
      "its": 140,
      "kann": 141,
      "sp": 142,
      "sind": 143,
      "kom": 144,
      "ger": 145,
      "las": 146,
      "sen": 147,
      "dich": 148,
      "der": 149,
      "hr": 150,
      "ok": 151,
      "sa": 152,
      "ld": 153,
      "my": 154,
      "did": 155,
      "dont": 156,
      "men": 157,
      "ten": 158,
      "this": 159,
      "ru": 160,
      "ad": 161,
      "la": 162,
      "sich": 163,
      "up": 164,
      "nen": 165,
      "einen": 166,
      "et": 167,
      "ihr": 168,
      "here": 169,
      "br": 170,
      "she": 171,
      "bo": 172,
      "youre": 173,
      "one": 174,
      "ts": 175,
      "ter": 176,
      "now": 177,
      "bist": 178,
      "fen": 179,
      "uns": 180,
      "your": 181,
      "bes": 182,
      "ust": 183,
      "wie": 184,
      "ung": 185,
      "nt": 186,
      "hel": 187,
      "get": 188,
      "ag": 189,
      "che": 190,
      "ze": 191,
      "ft": 192,
      "aus": 193,
      "um": 194,
      "will": 195,
      "were": 196,
      "him": 197,
      "hier": 198,
      "ab": 199,
      "hes": 200,
      "fr": 201,
      "like": 202,
      "fu": 203,
      "ent": 204,
      "come": 205,
      "not": 206,
      "wor": 207,
      "lu": 208,
      "ihn": 209,
      "ber": 210,
      "hen": 211,
      "il": 212,
      "lich": 213,
      "who": 214,
      "ant": 215,
      "zt": 216,
      "mein": 217,
      "gi": 218,
      "wa": 219,
      "have": 220,
      "how": 221,
      "haben": 222,
      "gehen": 223,
      "hl": 224,
      "ic": 225,
      "ste": 226,
      "they": 227,
      "bt": 228,
      "ht": 229,
      "wo": 230,
      "has": 231,
      "fa": 232,
      "ap": 233,
      "for": 234,
      "ti": 235,
      "ang": 236,
      "dr": 237,
      "ep": 238,
      "ry": 239,
      "toms": 240,
      "komm": 241,
      "kon": 242,
      "da": 243,
      "mit": 244,
      "mal": 245,
      "and": 246,
      "lass": 247,
      "fun": 248,
      "mo": 249,
      "gut": 250,
      "need": 251,
      "cant": 252,
      "use": 253,
      "mus": 254,
      "nd": 255,
      "thats": 256,
      "help": 257,
      "let": 258,
      "ly": 259,
      "sto": 260,
      "very": 261,
      "of": 262,
      "what": 263,
      "love": 264,
      "cht": 265,
      "dir": 266,
      "fo": 267,
      "nach": 268,
      "ta": 269,
      "chen": 270,
      "way": 271,
      "und": 272,
      "werde": 273,
      "macht": 274,
      "ted": 275,
      "see": 276,
      "kommen": 277,
      "ble": 278,
      "bus": 279,
      "hor": 280,
      "imm": 281,
      "ick": 282,
      "mar": 283,
      "out": 284,
      "want": 285,
      "isch": 286,
      "look": 287,
      "know": 288,
      "bit": 289,
      "work": 290,
      "wn": 291,
      "rei": 292,
      "well": 293,
      "mag": 294,
      "ken": 295,
      "lt": 296,
      "pp": 297,
      "such": 298,
      "brau": 299,
      "fer": 300,
      "wird": 301,
      "vor": 302,
      "win": 303,
      "home": 304,
      "su": 305,
      "beit": 306,
      "jo": 307,
      "alk": 308,
      "fee": 309,
      "ack": 310,
      "euch": 311,
      "op": 312,
      "sel": 313,
      "hast": 314,
      "iel": 315,
      "los": 316,
      "hur": 317,
      "ug": 318,
      "red": 319,
      "arbeit": 320,
      "gan": 321,
      "meine": 322,
      "ple": 323,
      "tur": 324,
      "geht": 325,
      "liebe": 326,
      "les": 327,
      "lau": 328,
      "tet": 329,
      "schw": 330,
      "igt": 331,
      "take": 332,
      "dy": 333,
      "sein": 334,
      "ound": 335,
      "gesch": 336,
      "etzt": 337,
      "pro": 338,
      "lets": 339,
      "luck": 340,
      "rie": 341,
      "trau": 342,
      "jetzt": 343,
      "ner": 344,
      "hal": 345,
      "hause": 346,
      "ade": 347,
      "gt": 348,
      "ive": 349,
      "nie": 350,
      "sing": 351,
      "za": 352,
      "ase": 353,
      "hin": 354,
      "qu": 355,
      "zen": 356,
      "star": 357,
      "try": 358,
      "alt": 359,
      "busy": 360,
      "car": 361,
      "fur": 362,
      "uber": 363,
      "wur": 364,
      "ous": 365,
      "read": 366,
      "ide": 367,
      "wit": 368,
      "too": 369,
      "ank": 370,
      "besch": 371,
      "ra": 372,
      "kein": 373,
      "ight": 374,
      "away": 375,
      "fre": 376,
      "fall": 377,
      "machen": 378,
      "stop": 379,
      "bitte": 380,
      "set": 381,
      "keep": 382,
      "gerade": 383,
      "aft": 384,
      "ce": 385,
      "just": 386,
      "noch": 387,
      "ave": 388,
      "dar": 389,
      "sehr": 390,
      "saw": 391,
      "fas": 392,
      "pe": 393,
      "pl": 394,
      "ty": 395,
      "new": 396,
      "back": 397,
      "od": 398,
      "versuch": 399,
      "give": 400,
      "please": 401,
      "fach": 402,
      "ol": 403,
      "iss": 404,
      "schu": 405,
      "lassen": 406,
      "ain": 407,
      "hn": 408,
      "seid": 409,
      "wei": 410,
      "got": 411,
      "ice": 412,
      "every": 413,
      "tig": 414,
      "ved": 415,
      "ish": 416,
      "ong": 417,
      "werden": 418,
      "muss": 419,
      "beschaft": 420,
      "cou": 421,
      "call": 422,
      "gro": 423,
      "na": 424,
      "uck": 425,
      "zur": 426,
      "ink": 427,
      "schon": 428,
      "down": 429,
      "gese": 430,
      "beschaftigt": 431,
      "di": 432,
      "har": 433,
      "tell": 434,
      "wurde": 435,
      "ex": 436,
      "sei": 437,
      "ort": 438,
      "verl": 439,
      "alle": 440,
      "gib": 441,
      "fahr": 442,
      "konnen": 443,
      "hy": 444,
      "man": 445,
      "est": 446,
      "ange": 447,
      "hatte": 448,
      "weg": 449,
      "helfen": 450,
      "blei": 451,
      "gesehen": 452,
      "ute": 453,
      "einfach": 454,
      "bei": 455,
      "neh": 456,
      "ak": 457,
      "eat": 458,
      "found": 459,
      "lang": 460,
      "ser": 461,
      "happ": 462,
      "sicher": 463,
      "bl": 464,
      "ko": 465,
      "mer": 466,
      "ise": 467,
      "hate": 468,
      "schla": 469,
      "lost": 470,
      "zahl": 471,
      "ine": 472,
      "gefun": 473,
      "heres": 474,
      "wait": 475,
      "brauche": 476,
      "feel": 477,
      "gefunden": 478,
      "gluck": 479,
      "tun": 480,
      "wr": 481,
      "isnt": 482,
      "gehe": 483,
      "stay": 484,
      "may": 485,
      "dog": 486,
      "end": 487,
      "llo": 488,
      "schne": 489,
      "viel": 490,
      "led": 491,
      "weit": 492,
      "ieren": 493,
      "body": 494,
      "off": 495,
      "af": 496,
      "fan": 497,
      "gr": 498,
      "stu": 499,
      "weh": 500,
      "hun": 501,
      "gemacht": 502,
      "beg": 503,
      "bet": 504,
      "leep": 505,
      "atch": 506,
      "ihm": 507,
      "iert": 508,
      "cold": 509,
      "mary": 510,
      "ate": 511,
      "ame": 512,
      "kam": 513,
      "had": 514,
      "sehen": 515,
      "ihnen": 516,
      "buch": 517,
      "must": 518,
      "po": 519,
      "talk": 520,
      "vo": 521,
      "ask": 522,
      "leben": 523,
      "trust": 524,
      "alone": 525,
      "book": 526,
      "ri": 527,
      "there": 528,
      "unter": 529,
      "dem": 530,
      "kommt": 531,
      "zuruck": 532,
      "happy": 533,
      "deine": 534,
      "day": 535,
      "per": 536,
      "walk": 537,
      "leave": 538,
      "sed": 539,
      "spa": 540,
      "darf": 541,
      "cry": 542,
      "hung": 543,
      "ious": 544,
      "ot": 545,
      "pr": 546,
      "ves": 547,
      "why": 548,
      "ern": 549,
      "kannst": 550,
      "ruck": 551,
      "again": 552,
      "hasse": 553,
      "ging": 554,
      "hle": 555,
      "kr": 556,
      "habt": 557,
      "gefall": 558,
      "betr": 559,
      "net": 560,
      "ja": 561,
      "kind": 562,
      "sw": 563,
      "say": 564,
      "ue": 565,
      "tor": 566,
      "essen": 567,
      "vertrau": 568,
      "nichts": 569,
      "acht": 570,
      "wieder": 571,
      "zeit": 572,
      "schuld": 573,
      "con": 574,
      "com": 575,
      "his": 576,
      "hil": 577,
      "keine": 578,
      "ude": 579,
      "von": 580,
      "won": 581,
      "watch": 582,
      "stand": 583,
      "auto": 584,
      "thing": 585,
      "spr": 586,
      "lasst": 587,
      "agt": 588,
      "fair": 589,
      "open": 590,
      "gangen": 591,
      "ried": 592,
      "fast": 593,
      "verlor": 594,
      "bro": 595,
      "dein": 596,
      "hund": 597,
      "mand": 598,
      "ander": 599,
      "hof": 600,
      "lot": 601,
      "ater": 602,
      "allein": 603,
      "dies": 604,
      "liebt": 605,
      "bring": 606,
      "fra": 607,
      "hurt": 608,
      "fangen": 609,
      "ct": 610,
      "mann": 611,
      "nimm": 612,
      "pas": 613,
      "right": 614,
      "ite": 615,
      "schau": 616,
      "them": 617,
      "time": 618,
      "immer": 619,
      "care": 620,
      "dan": 621,
      "lauf": 622,
      "sit": 623,
      "sho": 624,
      "arm": 625,
      "leid": 626,
      "schrei": 627,
      "dum": 628,
      "good": 629,
      "gern": 630,
      "whos": 631,
      "turn": 632,
      "start": 633,
      "schnell": 634,
      "je": 635,
      "kalt": 636,
      "ler": 637,
      "over": 638,
      "sur": 639,
      "hear": 640,
      "lose": 641,
      "neu": 642,
      "ache": 643,
      "konn": 644,
      "halten": 645,
      "weiter": 646,
      "krank": 647,
      "came": 648,
      "kid": 649,
      "nice": 650,
      "sleep": 651,
      "tut": 652,
      "wus": 653,
      "zy": 654,
      "hand": 655,
      "recht": 656,
      "geld": 657,
      "gegangen": 658,
      "ster": 659,
      "unge": 660,
      "made": 661,
      "late": 662,
      "self": 663,
      "less": 664,
      "nehmen": 665,
      "eas": 666,
      "find": 667,
      "nung": 668,
      "ren": 669,
      "rig": 670,
      "ins": 671,
      "issen": 672,
      "schl": 673,
      "igen": 674,
      "gerne": 675,
      "theyre": 676,
      "whats": 677,
      "follo": 678,
      "horen": 679,
      "glucklich": 680,
      "gu": 681,
      "hou": 682,
      "knew": 683,
      "pt": 684,
      "run": 685,
      "went": 686,
      "zie": 687,
      "auch": 688,
      "warum": 689,
      "soll": 690,
      "sah": 691,
      "etwas": 692,
      "plan": 693,
      "verloren": 694,
      "follow": 695,
      "par": 696,
      "sam": 697,
      "wheres": 698,
      "erin": 699,
      "still": 700,
      "felt": 701,
      "gehort": 702,
      "spat": 703,
      "ruh": 704,
      "fuhle": 705,
      "hard": 706,
      "ernst": 707,
      "easy": 708,
      "bier": 709,
      "bad": 710,
      "dre": 711,
      "ding": 712,
      "fish": 713,
      "gh": 714,
      "hi": 715,
      "jap": 716,
      "kes": 717,
      "nur": 718,
      "anden": 719,
      "hed": 720,
      "schlie": 721,
      "ichtig": 722,
      "mad": 723,
      "hol": 724,
      "alles": 725,
      "some": 726,
      "gessen": 727,
      "oking": 728,
      "boy": 729,
      "about": 730,
      "fort": 731,
      "job": 732,
      "ganz": 733,
      "niemand": 734,
      "with": 735,
      "could": 736,
      "ear": 737,
      "gl": 738,
      "kl": 739,
      "kus": 740,
      "put": 741,
      "sm": 742,
      "swe": 743,
      "wont": 744,
      "chte": 745,
      "enjo": 746,
      "han": 747,
      "gel": 748,
      "geben": 749,
      "does": 750,
      "loves": 751,
      "upset": 752,
      "oney": 753,
      "everyone": 754,
      "fahren": 755,
      "wrong": 756,
      "begin": 757,
      "swim": 758,
      "konnte": 759,
      "japan": 760,
      "enjoy": 761,
      "fle": 762,
      "fat": 763,
      "kauf": 764,
      "mis": 765,
      "money": 766,
      "tas": 767,
      "yes": 768,
      "iet": 769,
      "ese": 770,
      "ess": 771,
      "ret": 772,
      "gekommen": 773,
      "gewin": 774,
      "sieht": 775,
      "unk": 776,
      "left": 777,
      "scher": 778,
      "hope": 779,
      "det": 780,
      "zum": 781,
      "sag": 782,
      "didnt": 783,
      "best": 784,
      "fuhl": 785,
      "lug": 786,
      "fol": 787,
      "seem": 788,
      "ated": 789,
      "bre": 790,
      "cat": 791,
      "frei": 792,
      "hug": 793,
      "ik": 794,
      "mude": 795,
      "show": 796,
      "sick": 797,
      "tu": 798,
      "reich": 799,
      "geb": 800,
      "immen": 801,
      "doch": 802,
      "fehl": 803,
      "life": 804,
      "safe": 805,
      "getan": 806,
      "agre": 807,
      "wahr": 808,
      "fertig": 809,
      "play": 810,
      "hungry": 811,
      "bi": 812,
      "bst": 813,
      "cle": 814,
      "mt": 815,
      "mor": 816,
      "ning": 817,
      "pan": 818,
      "eint": 819,
      "mel": 820,
      "dass": 821,
      "weil": 822,
      "door": 823,
      "tro": 824,
      "warten": 825,
      "ful": 826,
      "tion": 827,
      "drunk": 828,
      "kenne": 829,
      "quiet": 830,
      "ready": 831,
      "versuchen": 832,
      "ruckt": 833,
      "by": 834,
      "bar": 835,
      "close": 836,
      "fi": 837,
      "ght": 838,
      "ia": 839,
      "kt": 840,
      "list": 841,
      "mine": 842,
      "old": 843,
      "pay": 844,
      "rt": 845,
      "shes": 846,
      "reat": 847,
      "unken": 848,
      "sche": 849,
      "wet": 850,
      "verste": 851,
      "never": 852,
      "ihre": 853,
      "live": 854,
      "likes": 855,
      "gesagt": 856,
      "spiel": 857,
      "komme": 858,
      "rufen": 859,
      "yourself": 860,
      "tired": 861,
      "hurry": 862,
      "arbeiten": 863,
      "setz": 864,
      "langweil": 865,
      "sterben": 866,
      "schlus": 867,
      "bu": 868,
      "bor": 869,
      "cut": 870,
      "eil": 871,
      "glau": 872,
      "hut": 873,
      "kat": 874,
      "miss": 875,
      "nut": 876,
      "sk": 877,
      "sin": 878,
      "weinen": 879,
      "any": 880,
      "anger": 881,
      "heit": 882,
      "lle": 883,
      "sieh": 884,
      "dur": 885,
      "wasnt": 886,
      "think": 887,
      "cook": 888,
      "cool": 889,
      "spe": 890,
      "app": 891,
      "angst": 892,
      "lesen": 893,
      "zahlen": 894,
      "laufen": 895,
      "ac": 896,
      "big": 897,
      "rein": 898,
      "son": 899,
      "sor": 900,
      "tv": 901,
      "uhr": 902,
      "wi": 903,
      "wach": 904,
      "where": 905,
      "zo": 906,
      "esse": 907,
      "ged": 908,
      "gebr": 909,
      "bed": 910,
      "nobody": 911,
      "fel": 912,
      "going": 913,
      "diese": 914,
      "lied": 915,
      "maria": 916,
      "looks": 917,
      "sure": 918,
      "hurts": 919,
      "schwimmen": 920,
      "freund": 921,
      "bleib": 922,
      "bleiben": 923,
      "perfe": 924,
      "kidding": 925,
      "dream": 926,
      "fau": 927,
      "jed": 928,
      "kiss": 929,
      "tan": 930,
      "wun": 931,
      "xi": 932,
      "heute": 933,
      "standen": 934,
      "beat": 935,
      "irst": 936,
      "mean": 937,
      "mehr": 938,
      "make": 939,
      "hot": 940,
      "urz": 941,
      "iere": 942,
      "warte": 943,
      "row": 944,
      "gere": 945,
      "tern": 946,
      "check": 947,
      "ummer": 948,
      "able": 949,
      "frau": 950,
      "wagen": 951,
      "stehen": 952,
      "hinter": 953,
      "free": 954,
      "studen": 955,
      "gefallt": 956,
      "schuldig": 957,
      "dumm": 958,
      "sweet": 959,
      "fuhlte": 960,
      "gebracht": 961,
      "ff": 962,
      "fin": 963,
      "hum": 964,
      "meinen": 965,
      "ng": 966,
      "ob": 967,
      "pa": 968,
      "rich": 969,
      "ran": 970,
      "ss": 971,
      "ven": 972,
      "vie": 973,
      "ving": 974,
      "wen": 975,
      "wissen": 976,
      "today": 977,
      "llen": 978,
      "augen": 979,
      "leicht": 980,
      "key": 981,
      "warm": 982,
      "waren": 983,
      "died": 984,
      "spre": 985,
      "wohl": 986,
      "hort": 987,
      "knows": 988,
      "fern": 989,
      "quit": 990,
      "blind": 991,
      "schlafen": 992,
      "gefallen": 993,
      "nett": 994,
      "pass": 995,
      "dis": 996,
      "eyes": 997,
      "fl": 998,
      "hre": 999,
      "ige": 1000,
      "jung": 1001,
      "junge": 1002,
      "kurz": 1003,
      "rad": 1004,
      "rest": 1005,
      "sau": 1006,
      "shou": 1007,
      "tall": 1008,
      "tag": 1009,
      "uer": 1010,
      "vater": 1011,
      "wut": 1012,
      "hab": 1013,
      "hei": 1014,
      "str": 1015,
      "beeil": 1016,
      "schie": 1017,
      "verruckt": 1018,
      "trie": 1019,
      "achte": 1020,
      "gehts": 1021,
      "sad": 1022,
      "zeig": 1023,
      "full": 1024,
      "bere": 1025,
      "drive": 1026,
      "konnt": 1027,
      "offen": 1028,
      "married": 1029,
      "brauchen": 1030,
      "halte": 1031,
      "called": 1032,
      "serious": 1033,
      "crying": 1034,
      "brot": 1035,
      "wusst": 1036,
      "seems": 1037,
      "agree": 1038,
      "aben": 1039,
      "blu": 1040,
      "cra": 1041,
      "eg": 1042,
      "fam": 1043,
      "fang": 1044,
      "ffee": 1045,
      "fine": 1046,
      "ian": 1047,
      "joking": 1048,
      "ky": 1049,
      "kaf": 1050,
      "ktion": 1051,
      "rau": 1052,
      "sy": 1053,
      "sha": 1054,
      "tim": 1055,
      "ufen": 1056,
      "zwei": 1057,
      "change": 1058,
      "ers": 1059,
      "engl": 1060,
      "inter": 1061,
      "ough": 1062,
      "gewon": 1063,
      "gegessen": 1064,
      "stup": 1065,
      "ird": 1066,
      "teach": 1067,
      "med": 1068,
      "sehe": 1069,
      "schre": 1070,
      "verlet": 1071,
      "verstanden": 1072,
      "lock": 1073,
      "fell": 1074,
      "coffee": 1075,
      "drink": 1076,
      "funktion": 1077,
      "mochte": 1078,
      "mussen": 1079,
      "braucht": 1080,
      "dying": 1081,
      "geschla": 1082,
      "lucky": 1083,
      "everybody": 1084,
      "hunger": 1085,
      "hilf": 1086,
      "fragen": 1087,
      "zieh": 1088,
      "gewinnen": 1089,
      "listen": 1090,
      "schlussel": 1091,
      "speak": 1092,
      "wutend": 1093,
      "crazy": 1094,
      "kaffee": 1095,
      "gewonnen": 1096,
      "stupid": 1097,
      "verletzt": 1098,
      "atet": 1099,
      "bal": 1100,
      "cke": 1101,
      "dro": 1102,
      "dort": 1103,
      "ei": 1104,
      "gir": 1105,
      "hit": 1106,
      "iend": 1107,
      "kop": 1108,
      "mom": 1109,
      "ras": 1110,
      "enough": 1111,
      "heim": 1112,
      "eins": 1113,
      "reme": 1114,
      "getr": 1115,
      "young": 1116,
      "iratet": 1117,
      "scho": 1118,
      "scheint": 1119,
      "hold": 1120,
      "nothing": 1121,
      "logen": 1122,
      "herein": 1123,
      "trin": 1124,
      "true": 1125,
      "lieben": 1126,
      "said": 1127,
      "sagen": 1128,
      "bored": 1129,
      "friend": 1130,
      "worden": 1131,
      "beru": 1132,
      "wake": 1133,
      "steht": 1134,
      "dabei": 1135,
      "more": 1136,
      "icked": 1137,
      "joke": 1138,
      "arbeitet": 1139,
      "traurig": 1140,
      "nerv": 1141,
      "quick": 1142,
      "witze": 1143,
      "versucht": 1144,
      "count": 1145,
      "zahlt": 1146,
      "better": 1147,
      "betrunken": 1148,
      "coming": 1149,
      "erinner": 1150,
      "wette": 1151,
      "nutz": 1152,
      "sinn": 1153,
      "angerufen": 1154,
      "should": 1155,
      "bald": 1156,
      "afra": 1157,
      "ball": 1158,
      "bla": 1159,
      "des": 1160,
      "flie": 1161,
      "fro": 1162,
      "fru": 1163,
      "kill": 1164,
      "kla": 1165,
      "len": 1166,
      "lache": 1167,
      "mber": 1168,
      "mil": 1169,
      "nis": 1170,
      "ped": 1171,
      "res": 1172,
      "sup": 1173,
      "vi": 1174,
      "touch": 1175,
      "halt": 1176,
      "ans": 1177,
      "bel": 1178,
      "beer": 1179,
      "bewe": 1180,
      "arent": 1181,
      "leg": 1182,
      "wel": 1183,
      "verschw": 1184,
      "dead": 1185,
      "tra": 1186,
      "tri": 1187,
      "ommen": 1188,
      "ierte": 1189,
      "rot": 1190,
      "room": 1191,
      "uchtern": 1192,
      "mache": 1193,
      "frag": 1194,
      "fuhr": 1195,
      "forget": 1196,
      "useless": 1197,
      "immt": 1198,
      "looked": 1199,
      "turzt": 1200,
      "singen": 1201,
      "hunde": 1202,
      "vertraut": 1203,
      "hoffe": 1204,
      "wusste": 1205,
      "troll": 1206,
      "bereit": 1207,
      "remember": 1208,
      "afraid": 1209,
      "lachel": 1210,
      "bis": 1211,
      "cur": 1212,
      "cap": 1213,
      "done": 1214,
      "dnung": 1215,
      "fte": 1216,
      "fisch": 1217,
      "ga": 1218,
      "gar": 1219,
      "gave": 1220,
      "io": 1221,
      "iz": 1222,
      "kar": 1223,
      "kap": 1224,
      "mp": 1225,
      "ming": 1226,
      "nor": 1227,
      "ris": 1228,
      "rat": 1229,
      "shy": 1230,
      "tie": 1231,
      "tre": 1232,
      "tat": 1233,
      "wan": 1234,
      "zing": 1235,
      "ised": 1236,
      "tomll": 1237,
      "haus": 1238,
      "asleep": 1239,
      "itt": 1240,
      "einmal": 1241,
      "rech": 1242,
      "ond": 1243,
      "schmer": 1244,
      "ordnung": 1245,
      "keit": 1246,
      "thy": 1247,
      "genau": 1248,
      "lieb": 1249,
      "sohn": 1250,
      "besser": 1251,
      "besturzt": 1252,
      "willst": 1253,
      "worried": 1254,
      "angry": 1255,
      "move": 1256,
      "needs": 1257,
      "food": 1258,
      "works": 1259,
      "working": 1260,
      "pped": 1261,
      "vorbei": 1262,
      "winning": 1263,
      "ounded": 1264,
      "singing": 1265,
      "witz": 1266,
      "exc": 1267,
      "seien": 1268,
      "dogs": 1269,
      "dieses": 1270,
      "leiden": 1271,
      "ruhig": 1272,
      "early": 1273,
      "smi": 1274,
      "kauft": 1275,
      "ski": 1276,
      "siehst": 1277,
      "wife": 1278,
      "girl": 1279,
      "air": 1280,
      "bag": 1281,
      "cau": 1282,
      "ctor": 1283,
      "dam": 1284,
      "dad": 1285,
      "deinen": 1286,
      "drei": 1287,
      "fruh": 1288,
      "gab": 1289,
      "great": 1290,
      "mut": 1291,
      "might": 1292,
      "ned": 1293,
      "pfe": 1294,
      "sle": 1295,
      "sum": 1296,
      "sang": 1297,
      "sichtig": 1298,
      "ting": 1299,
      "ure": 1300,
      "wein": 1301,
      "ware": 1302,
      "yet": 1303,
      "zimmer": 1304,
      "int": 1305,
      "anfangen": 1306,
      "ited": 1307,
      "head": 1308,
      "reg": 1309,
      "rela": 1310,
      "gew": 1311,
      "ons": 1312,
      "ones": 1313,
      "arger": 1314,
      "artig": 1315,
      "tee": 1316,
      "ungen": 1317,
      "met": 1318,
      "imme": 1319,
      "schen": 1320,
      "schle": 1321,
      "schuchtern": 1322,
      "wed": 1323,
      "weise": 1324,
      "igkeit": 1325,
      "doing": 1326,
      "doctor": 1327,
      "cken": 1328,
      "als": 1329,
      "althy": 1330,
      "amer": 1331,
      "annte": 1332,
      "lies": 1333,
      "ruhe": 1334,
      "ruhen": 1335,
      "from": 1336,
      "lugt": 1337,
      "gibt": 1338,
      "mart": 1339,
      "selbst": 1340,
      "prob": 1341,
      "probier": 1342,
      "half": 1343,
      "fallen": 1344,
      "name": 1345,
      "naive": 1346,
      "hart": 1347,
      "verlieren": 1348,
      "hungrig": 1349,
      "kinder": 1350,
      "hoff": 1351,
      "shot": 1352,
      "paris": 1353,
      "fehlt": 1354,
      "lleicht": 1355,
      "sorry": 1356,
      "gerecht": 1357,
      "humming": 1358,
      "obje": 1359,
      "vielleicht": 1360,
      "abend": 1361,
      "kopf": 1362,
      "quickly": 1363,
      "black": 1364,
      "relax": 1365,
      "bur": 1366,
      "cre": 1367,
      "cal": 1368,
      "cont": 1369,
      "ded": 1370,
      "dig": 1371,
      "dick": 1372,
      "ien": 1373,
      "kn": 1374,
      "mind": 1375,
      "obe": 1376,
      "pfer": 1377,
      "sme": 1378,
      "sig": 1379,
      "slo": 1380,
      "sat": 1381,
      "seine": 1382,
      "sache": 1383,
      "than": 1384,
      "wh": 1385,
      "zte": 1386,
      "erst": 1387,
      "ench": 1388,
      "tot": 1389,
      "told": 1390,
      "ieden": 1391,
      "our": 1392,
      "ought": 1393,
      "heiratet": 1394,
      "gemein": 1395,
      "gegeben": 1396,
      "youll": 1397,
      "belie": 1398,
      "only": 1399,
      "ard": 1400,
      "arzt": 1401,
      "lebt": 1402,
      "sec": 1403,
      "imp": 1404,
      "weve": 1405,
      "verheiratet": 1406,
      "dete": 1407,
      "wirk": 1408,
      "kel": 1409,
      "almo": 1410,
      "ally": 1411,
      "allen": 1412,
      "utt": 1413,
      "gestor": 1414,
      "spann": 1415,
      "send": 1416,
      "law": 1417,
      "lazy": 1418,
      "cheat": 1419,
      "cheated": 1420,
      "ausruhen": 1421,
      "umarm": 1422,
      "french": 1423,
      "fused": 1424,
      "antwor": 1425,
      "wohn": 1426,
      "musst": 1427,
      "lying": 1428,
      "taxi": 1429,
      "blem": 1430,
      "worked": 1431,
      "join": 1432,
      "loser": 1433,
      "arbeite": 1434,
      "lese": 1435,
      "problem": 1436,
      "reading": 1437,
      "typ": 1438,
      "nehme": 1439,
      "langsam": 1440,
      "write": 1441,
      "hilfe": 1442,
      "sprach": 1443,
      "inside": 1444,
      "madchen": 1445,
      "japanese": 1446,
      "father": 1447,
      "tasche": 1448,
      "break": 1449,
      "morgen": 1450,
      "langweilig": 1451,
      "katze": 1452,
      "applau": 1453,
      "freundlich": 1454,
      "perfect": 1455,
      "jeder": 1456,
      "sprechen": 1457,
      "schreck": 1458,
      "kaputt": 1459,
      "hoffnung": 1460,
      "smell": 1461,
      "almost": 1462,
      "gestorben": 1463,
      "cd": 1464,
      "ced": 1465,
      "dun": 1466,
      "ffer": 1467,
      "first": 1468,
      "gas": 1469,
      "hne": 1470,
      "ks": 1471,
      "kummer": 1472,
      "lf": 1473,
      "lust": 1474,
      "much": 1475,
      "ow": 1476,
      "ohr": 1477,
      "oft": 1478,
      "own": 1479,
      "ph": 1480,
      "pen": 1481,
      "pla": 1482,
      "pack": 1483,
      "psy": 1484,
      "piz": 1485,
      "smart": 1486,
      "test": 1487,
      "wounded": 1488,
      "zig": 1489,
      "erkalt": 1490,
      "innen": 1491,
      "took": 1492,
      "isen": 1493,
      "isst": 1494,
      "ased": 1495,
      "hey": 1496,
      "einverstanden": 1497,
      "real": 1498,
      "reden": 1499,
      "really": 1500,
      "youve": 1501,
      "began": 1502,
      "arab": 1503,
      "tete": 1504,
      "unfair": 1505,
      "auen": 1506,
      "ausch": 1507,
      "lehr": 1508,
      "hates": 1509,
      "schn": 1510,
      "schme": 1511,
      "orre": 1512,
      "iger": 1513,
      "hoch": 1514,
      "ush": 1515,
      "genie": 1516,
      "ward": 1517,
      "aufhoren": 1518,
      "gehor": 1519,
      "dieser": 1520,
      "liegt": 1521,
      "liar": 1522,
      "gest": 1523,
      "spie": 1524,
      "save": 1525,
      "mensch": 1526,
      "terri": 1527,
      "yours": 1528,
      "besche": 1529,
      "fran": 1530,
      "wahl": 1531,
      "wollen": 1532,
      "tive": 1533,
      "music": 1534,
      "suchtig": 1535,
      "sue": 1536,
      "optim": 1537,
      "nervo": 1538,
      "freude": 1539,
      "setzen": 1540,
      "ceed": 1541,
      "schule": 1542,
      "bleibt": 1543,
      "happen": 1544,
      "sicherheit": 1545,
      "schlaft": 1546,
      "study": 1547,
      "poli": 1548,
      "prom": 1549,
      "broke": 1550,
      "andert": 1551,
      "schreiben": 1552,
      "turned": 1553,
      "survi": 1554,
      "kids": 1555,
      "klein": 1556,
      "kusst": 1557,
      "beginnen": 1558,
      "lugner": 1559,
      "cats": 1560,
      "hugged": 1561,
      "buy": 1562,
      "faul": 1563,
      "student": 1564,
      "fernse": 1565,
      "schieen": 1566,
      "kyo": 1567,
      "nervous": 1568,
      "answer": 1569,
      "dreiig": 1570,
      "argert": 1571,
      "schlecht": 1572,
      "calm": 1573,
      "obey": 1574,
      "wirklich": 1575,
      "lustig": 1576,
      "erkaltung": 1577,
      "optimist": 1578,
      "nervos": 1579,
      "survived": 1580,
      "age": 1581,
      "cute": 1582,
      "din": 1583,
      "druck": 1584,
      "ell": 1585,
      "eure": 1586,
      "far": 1587,
      "fing": 1588,
      "ffe": 1589,
      "fiel": 1590,
      "fight": 1591,
      "gra": 1592,
      "ghed": 1593,
      "hu": 1594,
      "ible": 1595,
      "keinen": 1596,
      "nun": 1597,
      "pre": 1598,
      "raus": 1599,
      "richtig": 1600,
      "scare": 1601,
      "two": 1602,
      "theres": 1603,
      "chin": 1604,
      "ered": 1605,
      "erled": 1606,
      "env": 1607,
      "ished": 1608,
      "tomor": 1609,
      "hau": 1610,
      "haft": 1611,
      "hated": 1612,
      "hallo": 1613,
      "ief": 1614,
      "essed": 1615,
      "escap": 1616,
      "iter": 1617,
      "gebe": 1618,
      "gele": 1619,
      "stair": 1620,
      "bewusst": 1621,
      "irre": 1622,
      "irty": 1623,
      "seen": 1624,
      "orgt": 1625,
      "weird": 1626,
      "verwir": 1627,
      "verlassen": 1628,
      "vermis": 1629,
      "verargert": 1630,
      "mama": 1631,
      "wirst": 1632,
      "kept": 1633,
      "ckt": 1634,
      "hero": 1635,
      "altet": 1636,
      "zug": 1637,
      "zuhause": 1638,
      "ammen": 1639,
      "thirst": 1640,
      "thirty": 1641,
      "genug": 1642,
      "genommen": 1643,
      "ayed": 1644,
      "uchen": 1645,
      "span": 1646,
      "lasse": 1647,
      "sage": 1648,
      "ruder": 1649,
      "bose": 1650,
      "tsam": 1651,
      "unser": 1652,
      "zehn": 1653,
      "entspann": 1654,
      "wholl": 1655,
      "hows": 1656,
      "stehe": 1657,
      "hasst": 1658,
      "fahre": 1659,
      "tiv": 1660,
      "dran": 1661,
      "kontroll": 1662,
      "mitgebracht": 1663,
      "fool": 1664,
      "vorsichtig": 1665,
      "seltsam": 1666,
      "lossen": 1667,
      "prove": 1668,
      "rief": 1669,
      "stark": 1670,
      "fass": 1671,
      "dien": 1672,
      "diat": 1673,
      "fahrrad": 1674,
      "nehmt": 1675,
      "eating": 1676,
      "kochen": 1677,
      "stayed": 1678,
      "bett": 1679,
      "voll": 1680,
      "trusted": 1681,
      "sprich": 1682,
      "schauen": 1683,
      "shoot": 1684,
      "schreibt": 1685,
      "dumped": 1686,
      "lernen": 1687,
      "neues": 1688,
      "sleeping": 1689,
      "holfen": 1690,
      "fleisch": 1691,
      "clean": 1692,
      "glaube": 1693,
      "katzen": 1694,
      "durst": 1695,
      "perfekt": 1696,
      "tanzen": 1697,
      "wunder": 1698,
      "tried": 1699,
      "egg": 1700,
      "rauchen": 1701,
      "changed": 1702,
      "funktioniert": 1703,
      "karte": 1704,
      "caught": 1705,
      "damit": 1706,
      "schrecklich": 1707,
      "franzo": 1708,
      "fernseher": 1709,
      "tomorrow": 1710,
      "stairs": 1711,
      "verwirrt": 1712,
      "thirsty": 1713,
      "aw": 1714,
      "awake": 1715,
      "bruder": 1716,
      "ca": 1717,
      "cup": 1718,
      "cent": 1719,
      "catch": 1720,
      "corre": 1721,
      "cceed": 1722,
      "dru": 1723,
      "fie": 1724,
      "fal": 1725,
      "gun": 1726,
      "gone": 1727,
      "gute": 1728,
      "iv": 1729,
      "ion": 1730,
      "klug": 1731,
      "lou": 1732,
      "min": 1733,
      "ny": 1734,
      "ohn": 1735,
      "pu": 1736,
      "pain": 1737,
      "rannte": 1738,
      "ses": 1739,
      "sal": 1740,
      "snow": 1741,
      "shut": 1742,
      "short": 1743,
      "tausch": 1744,
      "vom": 1745,
      "vier": 1746,
      "yell": 1747,
      "zz": 1748,
      "zed": 1749,
      "cho": 1750,
      "chs": 1751,
      "erk": 1752,
      "insu": 1753,
      "ane": 1754,
      "anno": 1755,
      "anges": 1756,
      "ital": 1757,
      "held": 1758,
      "hello": 1759,
      "einge": 1760,
      "rean": 1761,
      "gelogen": 1762,
      "geworden": 1763,
      "gekusst": 1764,
      "geholfen": 1765,
      "stra": 1766,
      "stink": 1767,
      "stimme": 1768,
      "bekommen": 1769,
      "bezahlen": 1770,
      "ller": 1771,
      "once": 1772,
      "under": 1773,
      "unrecht": 1774,
      "legen": 1775,
      "hatten": 1776,
      "impro": 1777,
      "schwar": 1778,
      "weak": 1779,
      "verg": 1780,
      "duty": 1781,
      "dec": 1782,
      "logi": 1783,
      "nee": 1784,
      "ckte": 1785,
      "hers": 1786,
      "usu": 1787,
      "tru": 1788,
      "alter": 1789,
      "fear": 1790,
      "feet": 1791,
      "feuer": 1792,
      "golf": 1793,
      "ierig": 1794,
      "warn": 1795,
      "achten": 1796,
      "denn": 1797,
      "denke": 1798,
      "ucht": 1799,
      "soon": 1800,
      "sofort": 1801,
      "gesund": 1802,
      "komisch": 1803,
      "sagt": 1804,
      "tennis": 1805,
      "rude": 1806,
      "rufe": 1807,
      "etz": 1808,
      "bosto": 1809,
      "beste": 1810,
      "besorgt": 1811,
      "zeug": 1812,
      "meins": 1813,
      "waffe": 1814,
      "woke": 1815,
      "face": 1816,
      "dri": 1817,
      "drank": 1818,
      "drauen": 1819,
      "davon": 1820,
      "mals": 1821,
      "funny": 1822,
      "musik": 1823,
      "helped": 1824,
      "stood": 1825,
      "machtig": 1826,
      "magst": 1827,
      "kennen": 1828,
      "kennt": 1829,
      "suchen": 1830,
      "succeed": 1831,
      "schwach": 1832,
      "rain": 1833,
      "everything": 1834,
      "groartig": 1835,
      "dia": 1836,
      "dient": 1837,
      "exper": 1838,
      "blin": 1839,
      "korean": 1840,
      "offnen": 1841,
      "kamp": 1842,
      "talking": 1843,
      "vote": 1844,
      "trusts": 1845,
      "spaz": 1846,
      "betro": 1847,
      "vertraue": 1848,
      "comes": 1849,
      "careful": 1850,
      "carefull": 1851,
      "dance": 1852,
      "rennen": 1853,
      "house": 1854,
      "running": 1855,
      "sollten": 1856,
      "fishing": 1857,
      "schlief": 1858,
      "smoking": 1859,
      "flexi": 1860,
      "folgen": 1861,
      "gebissen": 1862,
      "panik": 1863,
      "fired": 1864,
      "verstehe": 1865,
      "spielen": 1866,
      "boring": 1867,
      "durch": 1868,
      "strong": 1869,
      "beeilen": 1870,
      "english": 1871,
      "teacher": 1872,
      "geschlagen": 1873,
      "geschlafen": 1874,
      "moment": 1875,
      "getroffen": 1876,
      "school": 1877,
      "trinken": 1878,
      "beruh": 1879,
      "nutzlos": 1880,
      "killed": 1881,
      "curious": 1882,
      "schmerzen": 1883,
      "smiled": 1884,
      "slept": 1885,
      "igkeiten": 1886,
      "probieren": 1887,
      "pferd": 1888,
      "thanks": 1889,
      "applauded": 1890,
      "plain": 1891,
      "pizza": 1892,
      "correct": 1893,
      "annoy": 1894,
      "improv": 1895,
      "boston": 1896,
      "carefully": 1897,
      "bli": 1898,
      "bird": 1899,
      "blieb": 1900,
      "bought": 1901,
      "cy": 1902,
      "cer": 1903,
      "cing": 1904,
      "dj": 1905,
      "dic": 1906,
      "dice": 1907,
      "fis": 1908,
      "fit": 1909,
      "fil": 1910,
      "gre": 1911,
      "gle": 1912,
      "gru": 1913,
      "hie": 1914,
      "hid": 1915,
      "hust": 1916,
      "ix": 1917,
      "ild": 1918,
      "ku": 1919,
      "lte": 1920,
      "ling": 1921,
      "mu": 1922,
      "mes": 1923,
      "mou": 1924,
      "nein": 1925,
      "nam": 1926,
      "night": 1927,
      "oke": 1928,
      "oben": 1929,
      "ologi": 1930,
      "prufen": 1931,
      "sisch": 1932,
      "six": 1933,
      "tt": 1934,
      "tisch": 1935,
      "ubel": 1936,
      "vol": 1937,
      "zus": 1938,
      "ersch": 1939,
      "inno": 1940,
      "inue": 1941,
      "tokyo": 1942,
      "ass": 1943,
      "itten": 1944,
      "outs": 1945,
      "reis": 1946,
      "reicht": 1947,
      "reise": 1948,
      "gegen": 1949,
      "gefangen": 1950,
      "gekauft": 1951,
      "stir": 1952,
      "stad": 1953,
      "stimmt": 1954,
      "behalten": 1955,
      "irrt": 1956,
      "sies": 1957,
      "arn": 1958,
      "arri": 1959,
      "teful": 1960,
      "teered": 1961,
      "unten": 1962,
      "unschuldig": 1963,
      "unusu": 1964,
      "unteered": 1965,
      "leise": 1966,
      "learn": 1967,
      "seat": 1968,
      "sechs": 1969,
      "schick": 1970,
      "schaf": 1971,
      "verk": 1972,
      "verp": 1973,
      "versp": 1974,
      "verab": 1975,
      "vergessen": 1976,
      "verandert": 1977,
      "verdient": 1978,
      "map": 1979,
      "igno": 1980,
      "hore": 1981,
      "doll": 1982,
      "log": 1983,
      "near": 1984,
      "wert": 1985,
      "atz": 1986,
      "atten": 1987,
      "heraus": 1988,
      "ushed": 1989,
      "tritt": 1990,
      "alive": 1991,
      "zuerst": 1992,
      "these": 1993,
      "throw": 1994,
      "god": 1995,
      "bene": 1996,
      "warst": 1997,
      "wartet": 1998,
      "achen": 1999,
      "annt": 2000,
      "aufge": 2001,
      "dieting": 2002,
      "lief": 2003,
      "cover": 2004,
      "gesetz": 2005,
      "myself": 2006,
      "ruf": 2007,
      "boss": 2008,
      "besit": 2009,
      "zeich": 2010,
      "zeigen": 2011,
      "willig": 2012,
      "frank": 2013,
      "fragt": 2014,
      "fue": 2015,
      "entschuld": 2016,
      "enttausch": 2017,
      "wort": 2018,
      "step": 2019,
      "apfel": 2020,
      "apologi": 2021,
      "tik": 2022,
      "mogen": 2023,
      "guter": 2024,
      "often": 2025,
      "horse": 2026,
      "reizen": 2027,
      "suit": 2028,
      "suits": 2029,
      "oper": 2030,
      "ugly": 2031,
      "laugh": 2032,
      "geschaf": 2033,
      "geschieden": 2034,
      "traume": 2035,
      "haltet": 2036,
      "zahle": 2037,
      "started": 2038,
      "starving": 2039,
      "uberlebt": 2040,
      "dark": 2041,
      "pech": 2042,
      "gott": 2043,
      "divor": 2044,
      "harm": 2045,
      "tellt": 2046,
      "exha": 2047,
      "fahrt": 2048,
      "manden": 2049,
      "angel": 2050,
      "sichert": 2051,
      "kocht": 2052,
      "geheim": 2053,
      "offne": 2054,
      "grund": 2055,
      "vogel": 2056,
      "walked": 2057,
      "vertrauen": 2058,
      "confused": 2059,
      "hilft": 2060,
      "spricht": 2061,
      "spring": 2062,
      "hoflich": 2063,
      "bringen": 2064,
      "dancing": 2065,
      "jemand": 2066,
      "ungewohn": 2067,
      "finden": 2068,
      "guy": 2069,
      "hired": 2070,
      "couldnt": 2071,
      "ears": 2072,
      "kussen": 2073,
      "doesnt": 2074,
      "japaner": 2075,
      "kaufen": 2076,
      "missed": 2077,
      "folg": 2078,
      "freiwillig": 2079,
      "wahrheit": 2080,
      "bike": 2081,
      "biased": 2082,
      "closely": 2083,
      "fire": 2084,
      "langweilt": 2085,
      "sorgen": 2086,
      "fault": 2087,
      "hinterher": 2088,
      "paid": 2089,
      "egal": 2090,
      "trinke": 2091,
      "fliegen": 2092,
      "milk": 2093,
      "milch": 2094,
      "trip": 2095,
      "girls": 2096,
      "objec": 2097,
      "cream": 2098,
      "continue": 2099,
      "sign": 2100,
      "slow": 2101,
      "secret": 2102,
      "dunkel": 2103,
      "lehrer": 2104,
      "spiele": 2105,
      "bescheid": 2106,
      "franzosisch": 2107,
      "falsch": 2108,
      "minute": 2109,
      "ohnmachtig": 2110,
      "schwarz": 2111,
      "truth": 2112,
      "expert": 2113,
      "gleich": 2114,
      "hiding": 2115,
      "volunteered": 2116,
      "zusammen": 2117,
      "innocent": 2118,
      "outside": 2119,
      "stadt": 2120,
      "arrived": 2121,
      "unusual": 2122,
      "enttauscht": 2123,
      "reizend": 2124,
      "ungewohnlich": 2125,
      "ado": 2126,
      "aving": 2127,
      "ahead": 2128,
      "bte": 2129,
      "blo": 2130,
      "bill": 2131,
      "blich": 2132,
      "dach": 2133,
      "dung": 2134,
      "druckt": 2135,
      "el": 2136,
      "ev": 2137,
      "ete": 2138,
      "ehr": 2139,
      "fut": 2140,
      "fand": 2141,
      "fly": 2142,
      "guck": 2143,
      "hide": 2144,
      "if": 2145,
      "ile": 2146,
      "ilie": 2147,
      "iot": 2148,
      "jungen": 2149,
      "kis": 2150,
      "ked": 2151,
      "kuchen": 2152,
      "lone": 2153,
      "long": 2154,
      "later": 2155,
      "mas": 2156,
      "mist": 2157,
      "mon": 2158,
      "owe": 2159,
      "pat": 2160,
      "pfl": 2161,
      "rice": 2162,
      "runter": 2163,
      "sou": 2164,
      "sim": 2165,
      "sicht": 2166,
      "sma": 2167,
      "sno": 2168,
      "smo": 2169,
      "song": 2170,
      "tal": 2171,
      "tap": 2172,
      "treat": 2173,
      "vain": 2174,
      "wid": 2175,
      "wind": 2176,
      "wise": 2177,
      "ched": 2178,
      "erzahl": 2179,
      "erkl": 2180,
      "erfolg": 2181,
      "ender": 2182,
      "inv": 2183,
      "town": 2184,
      "ison": 2185,
      "ham": 2186,
      "anw": 2187,
      "anot": 2188,
      "healthy": 2189,
      "einer": 2190,
      "einsam": 2191,
      "rew": 2192,
      "recy": 2193,
      "geliebt": 2194,
      "stut": 2195,
      "stren": 2196,
      "beide": 2197,
      "llte": 2198,
      "art": 2199,
      "arme": 2200,
      "around": 2201,
      "tea": 2202,
      "teen": 2203,
      "unde": 2204,
      "unlucky": 2205,
      "ungerecht": 2206,
      "auer": 2207,
      "meat": 2208,
      "meant": 2209,
      "lead": 2210,
      "leaving": 2211,
      "schwer": 2212,
      "schwin": 2213,
      "ores": 2214,
      "order": 2215,
      "wealthy": 2216,
      "verbin": 2217,
      "verlie": 2218,
      "verlass": 2219,
      "verhun": 2220,
      "verkla": 2221,
      "verkauft": 2222,
      "versichert": 2223,
      "hole": 2224,
      "urist": 2225,
      "idiot": 2226,
      "their": 2227,
      "uss": 2228,
      "wasted": 2229,
      "wasteful": 2230,
      "trank": 2231,
      "trol": 2232,
      "alway": 2233,
      "along": 2234,
      "benut": 2235,
      "geni": 2236,
      "einem": 2237,
      "rote": 2238,
      "rochen": 2239,
      "cow": 2240,
      "machst": 2241,
      "machte": 2242,
      "sold": 2243,
      "gesto": 2244,
      "gesche": 2245,
      "geret": 2246,
      "addic": 2247,
      "adores": 2248,
      "laden": 2249,
      "brave": 2250,
      "brief": 2251,
      "both": 2252,
      "tert": 2253,
      "usted": 2254,
      "hierher": 2255,
      "aber": 2256,
      "entkommen": 2257,
      "entschuldig": 2258,
      "word": 2259,
      "ily": 2260,
      "wahn": 2261,
      "habend": 2262,
      "theyll": 2263,
      "ford": 2264,
      "dazu": 2265,
      "moved": 2266,
      "used": 2267,
      "stopped": 2268,
      "foot": 2269,
      "nacht": 2270,
      "ickt": 2271,
      "ppe": 2272,
      "ppt": 2273,
      "brauch": 2274,
      "wine": 2275,
      "meinem": 2276,
      "laut": 2277,
      "lauter": 2278,
      "laughed": 2279,
      "geschn": 2280,
      "geschlossen": 2281,
      "prochen": 2282,
      "rieben": 2283,
      "singt": 2284,
      "ubernehmen": 2285,
      "uberprufen": 2286,
      "keiner": 2287,
      "darum": 2288,
      "platz": 2289,
      "cour": 2290,
      "groer": 2291,
      "nahe": 2292,
      "explain": 2293,
      "angelogen": 2294,
      "aked": 2295,
      "kost": 2296,
      "waited": 2297,
      "writ": 2298,
      "schneide": 2299,
      "post": 2300,
      "point": 2301,
      "asked": 2302,
      "books": 2303,
      "control": 2304,
      "brochen": 2305,
      "anderer": 2306,
      "manner": 2307,
      "danke": 2308,
      "schreib": 2309,
      "goodby": 2310,
      "heard": 2311,
      "ziehe": 2312,
      "sollen": 2313,
      "something": 2314,
      "glat": 2315,
      "hande": 2316,
      "sagte": 2317,
      "bestes": 2318,
      "folge": 2319,
      "brechen": 2320,
      "agreed": 2321,
      "pandas": 2322,
      "panicked": 2323,
      "fix": 2324,
      "schluss": 2325,
      "bord": 2326,
      "anybody": 2327,
      "zogen": 2328,
      "dreams": 2329,
      "pale": 2330,
      "spreche": 2331,
      "wohlhabend": 2332,
      "fernsehen": 2333,
      "radio": 2334,
      "sauber": 2335,
      "habs": 2336,
      "wussten": 2337,
      "familie": 2338,
      "family": 2339,
      "shall": 2340,
      "shame": 2341,
      "interess": 2342,
      "drown": 2343,
      "friends": 2344,
      "erinnere": 2345,
      "sinnig": 2346,
      "deser": 2347,
      "verschwender": 2348,
      "lacheln": 2349,
      "rechnung": 2350,
      "excited": 2351,
      "pfei": 2352,
      "abendessen": 2353,
      "believe": 2354,
      "umarmte": 2355,
      "gestanden": 2356,
      "terrif": 2357,
      "wahlt": 2358,
      "happened": 2359,
      "promised": 2360,
      "dinner": 2361,
      "scared": 2362,
      "envy": 2363,
      "bewusstsein": 2364,
      "vermisse": 2365,
      "loud": 2366,
      "erkaltet": 2367,
      "vergiss": 2368,
      "kampfen": 2369,
      "spazieren": 2370,
      "hielt": 2371,
      "versprochen": 2372,
      "ignore": 2373,
      "beneide": 2374,
      "geschafft": 2375,
      "divorced": 2376,
      "exhausted": 2377,
      "lonely": 2378,
      "simple": 2379,
      "smoke": 2380,
      "another": 2381,
      "schwinde": 2382,
      "verbindung": 2383,
      "verhungern": 2384,
      "always": 2385,
      "gerettet": 2386,
      "goodbye": 2387,
      "ama": 2388,
      "abo": 2389,
      "ban": 2390,
      "blau": 2391,
      "cu": 2392,
      "cab": 2393,
      "cep": 2394,
      "closer": 2395,
      "dann": 2396,
      "em": 2397,
      "eis": 2398,
      "eier": 2399,
      "eigen": 2400,
      "even": 2401,
      "emp": 2402,
      "fes": 2403,
      "flu": 2404,
      "fess": 2405,
      "glich": 2406,
      "glass": 2407,
      "game": 2408,
      "hnen": 2409,
      "hnt": 2410,
      "ient": 2411,
      "jum": 2412,
      "kau": 2413,
      "king": 2414,
      "kra": 2415,
      "ktiv": 2416,
      "leine": 2417,
      "lange": 2418,
      "line": 2419,
      "mau": 2420,
      "mont": 2421,
      "maus": 2422,
      "mund": 2423,
      "mug": 2424,
      "nst": 2425,
      "nummer": 2426,
      "oh": 2427,
      "pf": 2428,
      "pau": 2429,
      "pup": 2430,
      "pra": 2431,
      "richt": 2432,
      "slich": 2433,
      "snee": 2434,
      "scream": 2435,
      "tic": 2436,
      "tue": 2437,
      "table": 2438,
      "ufo": 2439,
      "van": 2440,
      "wis": 2441,
      "wann": 2442,
      "when": 2443,
      "weint": 2444,
      "chten": 2445,
      "child": 2446,
      "erte": 2447,
      "erzahlt": 2448,
      "erblin": 2449,
      "ende": 2450,
      "inted": 2451,
      "toll": 2452,
      "hair": 2453,
      "anrufen": 2454,
      "ity": 2455,
      "ouble": 2456,
      "isten": 2457,
      "heu": 2458,
      "einzu": 2459,
      "einander": 2460,
      "rede": 2461,
      "relen": 2462,
      "geist": 2463,
      "gebt": 2464,
      "gelassen": 2465,
      "gefahr": 2466,
      "gehabt": 2467,
      "gearbeitet": 2468,
      "gelangweilt": 2469,
      "gewahlt": 2470,
      "youd": 2471,
      "stre": 2472,
      "stern": 2473,
      "beau": 2474,
      "bezahl": 2475,
      "bezahlt": 2476,
      "bewunder": 2477,
      "lls": 2478,
      "sieben": 2479,
      "siegen": 2480,
      "tel": 2481,
      "uninsu": 2482,
      "mele": 2483,
      "melt": 2484,
      "lebe": 2485,
      "leide": 2486,
      "lebte": 2487,
      "sells": 2488,
      "schein": 2489,
      "schte": 2490,
      "schame": 2491,
      "schri": 2492,
      "wear": 2493,
      "verzieh": 2494,
      "verschwinde": 2495,
      "mathe": 2496,
      "math": 2497,
      "loved": 2498,
      "neug": 2499,
      "athi": 2500,
      "ckung": 2501,
      "iden": 2502,
      "herunter": 2503,
      "trat": 2504,
      "truck": 2505,
      "trink": 2506,
      "trouble": 2507,
      "alte": 2508,
      "threw": 2509,
      "ierts": 2510,
      "alleine": 2511,
      "allow": 2512,
      "gend": 2513,
      "deny": 2514,
      "illy": 2515,
      "aufgere": 2516,
      "aufgestanden": 2517,
      "lieber": 2518,
      "machs": 2519,
      "kannte": 2520,
      "spater": 2521,
      "spoke": 2522,
      "okay": 2523,
      "saved": 2524,
      "rub": 2525,
      "rules": 2526,
      "rumele": 2527,
      "adv": 2528,
      "lag": 2529,
      "upstairs": 2530,
      "bra": 2531,
      "brill": 2532,
      "besten": 2533,
      "ungluck": 2534,
      "agger": 2535,
      "chef": 2536,
      "umber": 2537,
      "fressen": 2538,
      "entlassen": 2539,
      "luge": 2540,
      "lugen": 2541,
      "wollte": 2542,
      "hasslich": 2543,
      "forgive": 2544,
      "forgot": 2545,
      "forward": 2546,
      "drinnen": 2547,
      "draw": 2548,
      "kommst": 2549,
      "musste": 2550,
      "helps": 2551,
      "looking": 2552,
      "bite": 2553,
      "vorne": 2554,
      "wink": 2555,
      "acker": 2556,
      "losing": 2557,
      "schwes": 2558,
      "schwimmt": 2559,
      "ounds": 2560,
      "geschrieben": 2561,
      "traum": 2562,
      "traumen": 2563,
      "niete": 2564,
      "single": 2565,
      "hingehen": 2566,
      "starb": 2567,
      "cares": 2568,
      "furcht": 2569,
      "furchte": 2570,
      "idea": 2571,
      "witzt": 2572,
      "witty": 2573,
      "daran": 2574,
      "fassen": 2575,
      "type": 2576,
      "versuchs": 2577,
      "schul": 2578,
      "hnte": 2579,
      "everyones": 2580,
      "naher": 2581,
      "schonen": 2582,
      "differ": 2583,
      "merk": 2584,
      "schlagen": 2585,
      "after": 2586,
      "grim": 2587,
      "stud": 2588,
      "studying": 2589,
      "begann": 2590,
      "bucher": 2591,
      "poor": 2592,
      "talks": 2593,
      "voted": 2594,
      "unterstut": 2595,
      "prison": 2596,
      "betrayed": 2597,
      "jahr": 2598,
      "jahre": 2599,
      "swam": 2600,
      "says": 2601,
      "vertraute": 2602,
      "standing": 2603,
      "fasting": 2604,
      "frage": 2605,
      "danger": 2606,
      "laufpass": 2607,
      "sitzen": 2608,
      "schreien": 2609,
      "jemanden": 2610,
      "surren": 2611,
      "sleepy": 2612,
      "insane": 2613,
      "guess": 2614,
      "ziehen": 2615,
      "hige": 2616,
      "schliee": 2617,
      "schlieen": 2618,
      "holen": 2619,
      "kuss": 2620,
      "geln": 2621,
      "tasse": 2622,
      "scherz": 2623,
      "scherze": 2624,
      "ikan": 2625,
      "geblieben": 2626,
      "meldet": 2627,
      "verstecken": 2628,
      "glaubig": 2629,
      "singe": 2630,
      "reinkommen": 2631,
      "diesem": 2632,
      "dreaming": 2633,
      "students": 2634,
      "finde": 2635,
      "leichtglaubig": 2636,
      "tries": 2637,
      "blue": 2638,
      "fangt": 2639,
      "raucht": 2640,
      "symp": 2641,
      "englander": 2642,
      "funktionieren": 2643,
      "drop": 2644,
      "eifer": 2645,
      "getrunken": 2646,
      "beruhige": 2647,
      "erinnern": 2648,
      "fliege": 2649,
      "klappt": 2650,
      "beweisen": 2651,
      "legal": 2652,
      "welche": 2653,
      "tragen": 2654,
      "fuhrung": 2655,
      "lachelte": 2656,
      "bisschen": 2657,
      "normal": 2658,
      "risk": 2659,
      "wants": 2660,
      "wanted": 2661,
      "rechts": 2662,
      "excuse": 2663,
      "smile": 2664,
      "summen": 2665,
      "weinte": 2666,
      "amerikan": 2667,
      "blacked": 2668,
      "relaxed": 2669,
      "burned": 2670,
      "whist": 2671,
      "gemeint": 2672,
      "lawy": 2673,
      "cheating": 2674,
      "phone": 2675,
      "gehorchen": 2676,
      "prefer": 2677,
      "erledigen": 2678,
      "escaping": 2679,
      "dienst": 2680,
      "shooting": 2681,
      "eggs": 2682,
      "cake": 2683,
      "eingeladen": 2684,
      "succeeded": 2685,
      "betrogen": 2686,
      "fische": 2687,
      "kuhe": 2688,
      "namen": 2689,
      "verkrumele": 2690,
      "apologize": 2691,
      "geheimnis": 2692,
      "slowly": 2693,
      "kissed": 2694,
      "monday": 2695,
      "tapfer": 2696,
      "invited": 2697,
      "genius": 2698,
      "cows": 2699,
      "course": 2700,
      "deserved": 2701,
      "terrific": 2702,
      "aboard": 2703,
      "vanished": 2704,
      "relented": 2705,
      "uninsured": 2706,
      "neugierig": 2707,
      "aufgeregt": 2708,
      "unglucklich": 2709,
      "surrender": 2710,
      "aun": 2711,
      "ba": 2712,
      "blass": 2713,
      "baked": 2714,
      "cous": 2715,
      "cious": 2716,
      "cried": 2717,
      "dou": 2718,
      "don": 2719,
      "dank": 2720,
      "echt": 2721,
      "euer": 2722,
      "fon": 2723,
      "fuch": 2724,
      "fft": 2725,
      "fant": 2726,
      "falt": 2727,
      "fbi": 2728,
      "ffel": 2729,
      "gg": 2730,
      "gig": 2731,
      "gho": 2732,
      "gam": 2733,
      "gang": 2734,
      "gine": 2735,
      "gate": 2736,
      "hj": 2737,
      "hon": 2738,
      "hind": 2739,
      "hic": 2740,
      "ican": 2741,
      "iled": 2742,
      "ippe": 2743,
      "jes": 2744,
      "kich": 2745,
      "kan": 2746,
      "kir": 2747,
      "kun": 2748,
      "kio": 2749,
      "ls": 2750,
      "lun": 2751,
      "lim": 2752,
      "lig": 2753,
      "land": 2754,
      "lachte": 2755,
      "lond": 2756,
      "mi": 2757,
      "mie": 2758,
      "nat": 2759,
      "nack": 2760,
      "number": 2761,
      "ose": 2762,
      "oti": 2763,
      "pin": 2764,
      "pst": 2765,
      "pap": 2766,
      "pick": 2767,
      "pret": 2768,
      "rte": 2769,
      "rom": 2770,
      "runs": 2771,
      "rap": 2772,
      "rauch": 2773,
      "rush": 2774,
      "sn": 2775,
      "sist": 2776,
      "ssen": 2777,
      "sla": 2778,
      "salt": 2779,
      "silly": 2780,
      "tner": 2781,
      "ul": 2782,
      "vant": 2783,
      "vierte": 2784,
      "wou": 2785,
      "wom": 2786,
      "weine": 2787,
      "wichtig": 2788,
      "wicked": 2789,
      "wommen": 2790,
      "year": 2791,
      "zer": 2792,
      "zau": 2793,
      "zzy": 2794,
      "erb": 2795,
      "ert": 2796,
      "erscho": 2797,
      "erwis": 2798,
      "engine": 2799,
      "togen": 2800,
      "toug": 2801,
      "totet": 2802,
      "tourist": 2803,
      "hase": 2804,
      "ies": 2805,
      "iefer": 2806,
      "anim": 2807,
      "aned": 2808,
      "anken": 2809,
      "aside": 2810,
      "ouch": 2811,
      "hell": 2812,
      "einges": 2813,
      "eindruckt": 2814,
      "einfalt": 2815,
      "rele": 2816,
      "repar": 2817,
      "redet": 2818,
      "refused": 2819,
      "returned": 2820,
      "regeln": 2821,
      "gelaufen": 2822,
      "gefeuer": 2823,
      "gefragt": 2824,
      "gewitzt": 2825,
      "gemeldet": 2826,
      "getotet": 2827,
      "stur": 2828,
      "stank": 2829,
      "stimmen": 2830,
      "been": 2831,
      "beha": 2832,
      "beweg": 2833,
      "beleid": 2834,
      "bekomme": 2835,
      "betik": 2836,
      "behind": 2837,
      "beeindruckt": 2838,
      "irren": 2839,
      "oned": 2840,
      "arge": 2841,
      "armed": 2842,
      "tele": 2843,
      "teile": 2844,
      "unlock": 2845,
      "unverheiratet": 2846,
      "unhoflich": 2847,
      "aut": 2848,
      "meet": 2849,
      "legt": 2850,
      "leute": 2851,
      "levant": 2852,
      "secon": 2853,
      "seite": 2854,
      "impr": 2855,
      "schwir": 2856,
      "scheinen": 2857,
      "schum": 2858,
      "schlos": 2859,
      "schrie": 2860,
      "wegen": 2861,
      "wecke": 2862,
      "weckte": 2863,
      "verdu": 2864,
      "verliebt": 2865,
      "verlasse": 2866,
      "mail": 2867,
      "mahj": 2868,
      "igh": 2869,
      "ignor": 2870,
      "deal": 2871,
      "deckung": 2872,
      "dozing": 2873,
      "neit": 2874,
      "urgen": 2875,
      "aten": 2876,
      "ating": 2877,
      "cker": 2878,
      "iders": 2879,
      "herr": 2880,
      "trave": 2881,
      "tragt": 2882,
      "alous": 2883,
      "already": 2884,
      "fever": 2885,
      "feig": 2886,
      "feier": 2887,
      "amus": 2888,
      "thin": 2889,
      "ierigkeiten": 2890,
      "benoti": 2891,
      "gener": 2892,
      "wars": 2893,
      "warnen": 2894,
      "aufen": 2895,
      "aufgehort": 2896,
      "aufstehen": 2897,
      "aufga": 2898,
      "canad": 2899,
      "ared": 2900,
      "roll": 2901,
      "rock": 2902,
      "road": 2903,
      "lion": 2904,
      "gesicht": 2905,
      "gesprochen": 2906,
      "kannten": 2907,
      "spinnen": 2908,
      "spiders": 2909,
      "last": 2910,
      "saint": 2911,
      "menge": 2912,
      "adier": 2913,
      "admi": 2914,
      "lage": 2915,
      "lawn": 2916,
      "ihrer": 2917,
      "brach": 2918,
      "boat": 2919,
      "boot": 2920,
      "bestell": 2921,
      "besoffen": 2922,
      "unglau": 2923,
      "helfe": 2924,
      "cheese": 2925,
      "ftig": 2926,
      "ftste": 2927,
      "ausge": 2928,
      "frieden": 2929,
      "entsche": 2930,
      "notic": 2931,
      "worth": 2932,
      "luft": 2933,
      "ilty": 2934,
      "liche": 2935,
      "meinung": 2936,
      "waff": 2937,
      "hlen": 2938,
      "ics": 2939,
      "steal": 2940,
      "stellen": 2941,
      "wohne": 2942,
      "fail": 2943,
      "failed": 2944,
      "apple": 2945,
      "appro": 2946,
      "daheim": 2947,
      "mitta": 2948,
      "mitmachen": 2949,
      "mitnehmen": 2950,
      "fund": 2951,
      "funf": 2952,
      "motor": 2953,
      "moglich": 2954,
      "guts": 2955,
      "needed": 2956,
      "stort": 2957,
      "fox": 2958,
      "nachhause": 2959,
      "werdet": 2960,
      "bled": 2961,
      "horte": 2962,
      "horri": 2963,
      "horses": 2964,
      "kennst": 2965,
      "sucht": 2966,
      "winter": 2967,
      "jog": 2968,
      "opft": 2969,
      "pleite": 2970,
      "turk": 2971,
      "schwit": 2972,
      "schwierigkeiten": 2973,
      "geschaft": 2974,
      "geschickt": 2975,
      "geschwommen": 2976,
      "geschneit": 2977,
      "profess": 2978,
      "riecht": 2979,
      "niemals": 2980,
      "hinein": 2981,
      "uberlass": 2982,
      "uberras": 2983,
      "wurfel": 2984,
      "wurdig": 2985,
      "idee": 2986,
      "beschwi": 2987,
      "raise": 2988,
      "cei": 2989,
      "nochmal": 2990,
      "fasst": 2991,
      "pel": 2992,
      "pect": 2993,
      "news": 2994,
      "backen": 2995,
      "fachmann": 2996,
      "schuler": 2997,
      "weile": 2998,
      "tiger": 2999,
      "cough": 3000,
      "naiv": 3001,
      "downstairs": 3002,
      "dizzy": 3003,
      "exist": 3004,
      "exagger": 3005,
      "ortant": 3006,
      "gibts": 3007,
      "many": 3008,
      "angekommen": 3009,
      "langweile": 3010,
      "bler": 3011,
      "blond": 3012,
      "blushed": 3013,
      "koch": 3014,
      "merkt": 3015,
      "schlaf": 3016,
      "geheiratet": 3017,
      "offnet": 3018,
      "afford": 3019,
      "grin": 3020,
      "grun": 3021,
      "grippe": 3022,
      "grouch": 3023,
      "wehgetan": 3024,
      "kamen": 3025,
      "power": 3026,
      "talked": 3027,
      "unterrich": 3028,
      "walking": 3029,
      "pray": 3030,
      "prayed": 3031,
      "gingen": 3032,
      "kranken": 3033,
      "betrug": 3034,
      "jazz": 3035,
      "nichtsnutz": 3036,
      "wiedersehen": 3037,
      "cons": 3038,
      "contri": 3039,
      "wonder": 3040,
      "deins": 3041,
      "andern": 3042,
      "passt": 3043,
      "passed": 3044,
      "lauft": 3045,
      "dumb": 3046,
      "jealous": 3047,
      "lernt": 3048,
      "surpr": 3049,
      "konnten": 3050,
      "guilty": 3051,
      "hour": 3052,
      "solltest": 3053,
      "badly": 3054,
      "dreh": 3055,
      "nurse": 3056,
      "someone": 3057,
      "somebody": 3058,
      "hang": 3059,
      "japanerin": 3060,
      "missing": 3061,
      "gewinnt": 3062,
      "fehler": 3063,
      "paying": 3064,
      "buted": 3065,
      "born": 3066,
      "nuts": 3067,
      "anything": 3068,
      "cooks": 3069,
      "accep": 3070,
      "nobodys": 3071,
      "jeden": 3072,
      "tanze": 3073,
      "wunsche": 3074,
      "wartete": 3075,
      "frauen": 3076,
      "studenten": 3077,
      "ffins": 3078,
      "finish": 3079,
      "finished": 3080,
      "vened": 3081,
      "wenig": 3082,
      "wenden": 3083,
      "keys": 3084,
      "sauer": 3085,
      "sause": 3086,
      "strange": 3087,
      "zeigs": 3088,
      "seriously": 3089,
      "brother": 3090,
      "brothers": 3091,
      "famous": 3092,
      "times": 3093,
      "zweifel": 3094,
      "intervened": 3095,
      "medit": 3096,
      "schreit": 3097,
      "eile": 3098,
      "rasen": 3099,
      "desk": 3100,
      "froh": 3101,
      "fruit": 3102,
      "rescu": 3103,
      "supper": 3104,
      "bewegen": 3105,
      "welcome": 3106,
      "trage": 3107,
      "bereitet": 3108,
      "risi": 3109,
      "raten": 3110,
      "tats": 3111,
      "pfeffer": 3112,
      "summt": 3113,
      "regnet": 3114,
      "american": 3115,
      "objektiv": 3116,
      "abendbrot": 3117,
      "white": 3118,
      "ours": 3119,
      "important": 3120,
      "antworten": 3121,
      "kaputtgemacht": 3122,
      "smells": 3123,
      "kummern": 3124,
      "phoned": 3125,
      "psycho": 3126,
      "arabic": 3127,
      "arabisch": 3128,
      "schmecken": 3129,
      "terrible": 3130,
      "poliz": 3131,
      "police": 3132,
      "promise": 3133,
      "hub": 3134,
      "china": 3135,
      "erledigt": 3136,
      "gelegt": 3137,
      "irrelevant": 3138,
      "spanisch": 3139,
      "spanish": 3140,
      "entspannen": 3141,
      "vollig": 3142,
      "schreibtisch": 3143,
      "durstig": 3144,
      "pull": 3145,
      "puzz": 3146,
      "snowing": 3147,
      "yelling": 3148,
      "yelled": 3149,
      "italian": 3150,
      "italien": 3151,
      "strae": 3152,
      "understood": 3153,
      "decis": 3154,
      "drives": 3155,
      "diabet": 3156,
      "diabetik": 3157,
      "flexible": 3158,
      "beruhmt": 3159,
      "annoying": 3160,
      "improvis": 3161,
      "blick": 3162,
      "birds": 3163,
      "green": 3164,
      "hustete": 3165,
      "muffins": 3166,
      "mouth": 3167,
      "erschopft": 3168,
      "schaffen": 3169,
      "verabsche": 3170,
      "herausbekommen": 3171,
      "besitzt": 3172,
      "objective": 3173,
      "blod": 3174,
      "evil": 3175,
      "ehrlich": 3176,
      "gucken": 3177,
      "pflicht": 3178,
      "small": 3179,
      "talent": 3180,
      "erfolgreich": 3181,
      "hammer": 3182,
      "anwalt": 3183,
      "verklagt": 3184,
      "gestohlen": 3185,
      "geschehen": 3186,
      "entschuldigung": 3187,
      "wahnsinnig": 3188,
      "brauchst": 3189,
      "geschnitten": 3190,
      "glatze": 3191,
      "pfeifen": 3192,
      "glasses": 3193,
      "jump": 3194,
      "montag": 3195,
      "mugged": 3196,
      "pause": 3197,
      "puppe": 3198,
      "schriftste": 3199,
      "prisoner": 3200,
      "sympathi": 3201,
      "eifersuchtig": 3202,
      "whistle": 3203,
      "lawyer": 3204,
      "surrendered": 3205,
      "cousins": 3206,
      "fantas": 3207,
      "ghost": 3208,
      "hiccup": 3209,
      "jesus": 3210,
      "kanadier": 3211,
      "lunch": 3212,
      "london": 3213,
      "papa": 3214,
      "pretty": 3215,
      "viertel": 3216,
      "would": 3217,
      "zauber": 3218,
      "tough": 3219,
      "eingestellt": 3220,
      "einfaltig": 3221,
      "release": 3222,
      "gefeuert": 3223,
      "telefon": 3224,
      "second": 3225,
      "impressed": 3226,
      "schwirr": 3227,
      "schloss": 3228,
      "verdufte": 3229,
      "mahjong": 3230,
      "urgent": 3231,
      "benotige": 3232,
      "aufgabe": 3233,
      "canadian": 3234,
      "unglaublich": 3235,
      "noticed": 3236,
      "mittagessen": 3237,
      "horrible": 3238,
      "professor": 3239,
      "beschwipst": 3240,
      "contributed": 3241,
      "rescued": 3242,
      "schriftsteller": 3243,
      "aden": 3244,
      "ager": 3245,
      "awn": 3246,
      "act": 3247,
      "bein": 3248,
      "bts": 3249,
      "bab": 3250,
      "band": 3251,
      "bug": 3252,
      "bread": 3253,
      "biss": 3254,
      "bauch": 3255,
      "bborn": 3256,
      "ci": 3257,
      "ces": 3258,
      "cas": 3259,
      "cam": 3260,
      "cro": 3261,
      "cri": 3262,
      "camer": 3263,
      "dit": 3264,
      "ever": 3265,
      "fed": 3266,
      "flo": 3267,
      "flas": 3268,
      "ffen": 3269,
      "fest": 3270,
      "gon": 3271,
      "gust": 3272,
      "gaben": 3273,
      "hir": 3274,
      "ip": 3275,
      "klang": 3276,
      "kret": 3277,
      "knee": 3278,
      "kniete": 3279,
      "kiefer": 3280,
      "lit": 3281,
      "lacht": 3282,
      "lachen": 3283,
      "mum": 3284,
      "missen": 3285,
      "mbled": 3286,
      "ns": 3287,
      "nu": 3288,
      "nar": 3289,
      "nick": 3290,
      "nass": 3291,
      "oder": 3292,
      "oled": 3293,
      "obst": 3294,
      "ps": 3295,
      "pie": 3296,
      "por": 3297,
      "pic": 3298,
      "pted": 3299,
      "pop": 3300,
      "pol": 3301,
      "port": 3302,
      "pond": 3303,
      "rist": 3304,
      "rushed": 3305,
      "sus": 3306,
      "som": 3307,
      "slos": 3308,
      "squ": 3309,
      "scar": 3310,
      "summer": 3311,
      "snor": 3312,
      "sounded": 3313,
      "sounds": 3314,
      "tch": 3315,
      "tes": 3316,
      "tho": 3317,
      "trei": 3318,
      "twin": 3319,
      "uge": 3320,
      "vive": 3321,
      "viert": 3322,
      "wall": 3323,
      "water": 3324,
      "wisst": 3325,
      "wrote": 3326,
      "yawn": 3327,
      "zwill": 3328,
      "zisch": 3329,
      "zdem": 3330,
      "zunge": 3331,
      "cher": 3332,
      "ches": 3333,
      "chur": 3334,
      "chung": 3335,
      "chic": 3336,
      "charm": 3337,
      "changes": 3338,
      "christ": 3339,
      "ere": 3340,
      "erho": 3341,
      "erlau": 3342,
      "erreich": 3343,
      "erzahlen": 3344,
      "erleicht": 3345,
      "erfull": 3346,
      "enden": 3347,
      "enter": 3348,
      "engel": 3349,
      "inge": 3350,
      "toget": 3351,
      "tori": 3352,
      "tong": 3353,
      "toons": 3354,
      "tokio": 3355,
      "iso": 3356,
      "haare": 3357,
      "hamed": 3358,
      "esen": 3359,
      "essing": 3360,
      "esman": 3361,
      "angen": 3362,
      "anfassen": 3363,
      "astr": 3364,
      "ashamed": 3365,
      "istic": 3366,
      "heier": 3367,
      "heil": 3368,
      "eingenommen": 3369,
      "eingeschlafen": 3370,
      "reach": 3371,
      "reli": 3372,
      "return": 3373,
      "reisen": 3374,
      "recover": 3375,
      "removed": 3376,
      "gedu": 3377,
      "gewar": 3378,
      "gets": 3379,
      "gelt": 3380,
      "gefuhl": 3381,
      "gefehlt": 3382,
      "gehau": 3383,
      "gebacken": 3384,
      "sti": 3385,
      "stab": 3386,
      "stimm": 3387,
      "beim": 3388,
      "behar": 3389,
      "bekam": 3390,
      "beliebt": 3391,
      "beangst": 3392,
      "beob": 3393,
      "behalt": 3394,
      "bewaff": 3395,
      "llible": 3396,
      "onen": 3397,
      "onom": 3398,
      "online": 3399,
      "aren": 3400,
      "arre": 3401,
      "archt": 3402,
      "arzte": 3403,
      "unden": 3404,
      "undr": 3405,
      "unhappy": 3406,
      "unkind": 3407,
      "undet": 3408,
      "unmor": 3409,
      "lei": 3410,
      "leer": 3411,
      "leug": 3412,
      "leisten": 3413,
      "seven": 3414,
      "scham": 3415,
      "schade": 3416,
      "schaft": 3417,
      "schmut": 3418,
      "schimp": 3419,
      "schlossen": 3420,
      "schuss": 3421,
      "schaden": 3422,
      "oral": 3423,
      "weihn": 3424,
      "weiger": 3425,
      "ingt": 3426,
      "verbr": 3427,
      "verruck": 3428,
      "verspat": 3429,
      "vergeben": 3430,
      "verkauf": 3431,
      "verwun": 3432,
      "verschlafen": 3433,
      "verblu": 3434,
      "vernun": 3435,
      "versal": 3436,
      "verraten": 3437,
      "vermissen": 3438,
      "mahl": 3439,
      "makes": 3440,
      "iges": 3441,
      "homes": 3442,
      "noise": 3443,
      "duated": 3444,
      "deli": 3445,
      "debt": 3446,
      "deep": 3447,
      "decei": 3448,
      "wirf": 3449,
      "dow": 3450,
      "loch": 3451,
      "lowe": 3452,
      "neid": 3453,
      "urr": 3454,
      "ath": 3455,
      "ati": 3456,
      "athe": 3457,
      "herz": 3458,
      "wash": 3459,
      "wasch": 3460,
      "wasser": 3461,
      "trug": 3462,
      "trot": 3463,
      "tricked": 3464,
      "alisch": 3465,
      "few": 3466,
      "fett": 3467,
      "zuverlass": 3468,
      "thought": 3469,
      "thief": 3470,
      "gover": 3471,
      "goss": 3472,
      "aufzu": 3473,
      "aufhalten": 3474,
      "aufgeb": 3475,
      "cannot": 3476,
      "dieb": 3477,
      "diesen": 3478,
      "liest": 3479,
      "liebst": 3480,
      "colle": 3481,
      "coward": 3482,
      "cooper": 3483,
      "lien": 3484,
      "liked": 3485,
      "lifes": 3486,
      "soe": 3487,
      "sore": 3488,
      "soweit": 3489,
      "geschen": 3490,
      "spy": 3491,
      "sper": 3492,
      "sport": 3493,
      "spion": 3494,
      "gerannt": 3495,
      "geraten": 3496,
      "lasen": 3497,
      "sent": 3498,
      "sense": 3499,
      "hrung": 3500,
      "same": 3501,
      "ldig": 3502,
      "ruin": 3503,
      "ruhr": 3504,
      "ruft": 3505,
      "ihren": 3506,
      "ihres": 3507,
      "bren": 3508,
      "brig": 3509,
      "brachte": 3510,
      "bringe": 3511,
      "boden": 3512,
      "boten": 3513,
      "boil": 3514,
      "bott": 3515,
      "besuch": 3516,
      "besuchen": 3517,
      "wieso": 3518,
      "getting": 3519,
      "zeige": 3520,
      "zelte": 3521,
      "ausger": 3522,
      "ausstehen": 3523,
      "umgebracht": 3524,
      "ummelt": 3525,
      "willkommen": 3526,
      "himmel": 3527,
      "frig": 3528,
      "fuhre": 3529,
      "entlang": 3530,
      "entschlossen": 3531,
      "notig": 3532,
      "iling": 3533,
      "meint": 3534,
      "meinst": 3535,
      "meinte": 3536,
      "gic": 3537,
      "waved": 3538,
      "hling": 3539,
      "icing": 3540,
      "steh": 3541,
      "steigen": 3542,
      "wozu": 3543,
      "hassen": 3544,
      "fake": 3545,
      "fact": 3546,
      "approve": 3547,
      "forgave": 3548,
      "tipsy": 3549,
      "drin": 3550,
      "dafur": 3551,
      "dagegen": 3552,
      "mocht": 3553,
      "movie": 3554,
      "mosle": 3555,
      "motiv": 3556,
      "mochten": 3557,
      "muslim": 3558,
      "helpless": 3559,
      "stopp": 3560,
      "dirty": 3561,
      "fogg": 3562,
      "fooled": 3563,
      "nachlassen": 3564,
      "nachricht": 3565,
      "tain": 3566,
      "imming": 3567,
      "immoral": 3568,
      "icken": 3569,
      "reifen": 3570,
      "pping": 3571,
      "suche": 3572,
      "voreingenommen": 3573,
      "suigkeiten": 3574,
      "selber": 3575,
      "laufe": 3576,
      "schwimme": 3577,
      "geschicht": 3578,
      "geschummelt": 3579,
      "proof": 3580,
      "riech": 3581,
      "traumt": 3582,
      "halts": 3583,
      "nieder": 3584,
      "zahn": 3585,
      "zahne": 3586,
      "hingegangen": 3587,
      "quite": 3588,
      "trying": 3589,
      "card": 3590,
      "carry": 3591,
      "carpen": 3592,
      "cartoons": 3593,
      "uberleben": 3594,
      "ubertrie": 3595,
      "uberlebte": 3596,
      "rac": 3597,
      "rage": 3598,
      "freunde": 3599,
      "freiges": 3600,
      "falle": 3601,
      "setze": 3602,
      "fastet": 3603,
      "odd": 3604,
      "versuchung": 3605,
      "schuhe": 3606,
      "aint": 3607,
      "tigers": 3608,
      "coughed": 3609,
      "groe": 3610,
      "grow": 3611,
      "groen": 3612,
      "grozug": 3613,
      "nahrung": 3614,
      "exam": 3615,
      "expect": 3616,
      "verlaufen": 3617,
      "mantel": 3618,
      "wegs": 3619,
      "weggenommen": 3620,
      "beifall": 3621,
      "koche": 3622,
      "kooper": 3623,
      "schlafe": 3624,
      "writer": 3625,
      "staying": 3626,
      "schnee": 3627,
      "schneit": 3628,
      "stubborn": 3629,
      "hungover": 3630,
      "begging": 3631,
      "river": 3632,
      "unterschreiben": 3633,
      "zuruckgekommen": 3634,
      "jaw": 3635,
      "swimming": 3636,
      "toricht": 3637,
      "zeiten": 3638,
      "conf": 3639,
      "comput": 3640,
      "histori": 3641,
      "watching": 3642,
      "things": 3643,
      "opened": 3644,
      "hurting": 3645,
      "cticing": 3646,
      "past": 3647,
      "passen": 3648,
      "schaut": 3649,
      "danach": 3650,
      "sitz": 3651,
      "shoes": 3652,
      "shook": 3653,
      "shopping": 3654,
      "schneller": 3655,
      "lerne": 3656,
      "overslept": 3657,
      "surfing": 3658,
      "survive": 3659,
      "heart": 3660,
      "weitermachen": 3661,
      "hands": 3662,
      "handle": 3663,
      "rennt": 3664,
      "schlimm": 3665,
      "guard": 3666,
      "gullible": 3667,
      "ptiert": 3668,
      "sollte": 3669,
      "solltet": 3670,
      "plane": 3671,
      "partie": 3672,
      "ernsthaft": 3673,
      "holz": 3674,
      "klat": 3675,
      "klingt": 3676,
      "smok": 3677,
      "sweated": 3678,
      "gelen": 3679,
      "flehe": 3680,
      "retten": 3681,
      "rettete": 3682,
      "gewinne": 3683,
      "scherzt": 3684,
      "sagten": 3685,
      "lugst": 3686,
      "folgt": 3687,
      "fehlst": 3688,
      "clever": 3689,
      "meldete": 3690,
      "trost": 3691,
      "verstecke": 3692,
      "versteckt": 3693,
      "setzte": 3694,
      "glaubt": 3695,
      "anyway": 3696,
      "durfen": 3697,
      "apples": 3698,
      "laufenden": 3699,
      "wachsen": 3700,
      "bedtime": 3701,
      "warteten": 3702,
      "hintergangen": 3703,
      "freezing": 3704,
      "dummkopf": 3705,
      "sweets": 3706,
      "findet": 3707,
      "human": 3708,
      "augenblick": 3709,
      "quitt": 3710,
      "passiert": 3711,
      "discre": 3712,
      "disgust": 3713,
      "diskret": 3714,
      "flat": 3715,
      "uert": 3716,
      "beeilt": 3717,
      "konntest": 3718,
      "bluff": 3719,
      "englisch": 3720,
      "hilflos": 3721,
      "speaks": 3722,
      "drove": 3723,
      "heimweh": 3724,
      "nervt": 3725,
      "frohe": 3726,
      "fruher": 3727,
      "fruhling": 3728,
      "respond": 3729,
      "suppe": 3730,
      "welches": 3731,
      "verschwand": 3732,
      "verschwunden": 3733,
      "trafen": 3734,
      "fragte": 3735,
      "lachelten": 3736,
      "garden": 3737,
      "tied": 3738,
      "schmerzt": 3739,
      "mutter": 3740,
      "regnen": 3741,
      "gewesen": 3742,
      "teeth": 3743,
      "probiert": 3744,
      "probiere": 3745,
      "contact": 3746,
      "knapp": 3747,
      "umarmt": 3748,
      "antwortet": 3749,
      "wohnung": 3750,
      "mussten": 3751,
      "arbeitete": 3752,
      "applaud": 3753,
      "dunn": 3754,
      "kummere": 3755,
      "ohren": 3756,
      "psychic": 3757,
      "lehrerin": 3758,
      "genieen": 3759,
      "menschlich": 3760,
      "kyoto": 3761,
      "obeyed": 3762,
      "dinge": 3763,
      "fighting": 3764,
      "graduated": 3765,
      "prep": 3766,
      "envious": 3767,
      "escaped": 3768,
      "iterate": 3769,
      "gebetet": 3770,
      "bewusstlos": 3771,
      "vermisst": 3772,
      "unsere": 3773,
      "kontrollier": 3774,
      "kontrollieren": 3775,
      "foolish": 3776,
      "drum": 3777,
      "fied": 3778,
      "salesman": 3779,
      "vierzig": 3780,
      "choose": 3781,
      "insult": 3782,
      "understand": 3783,
      "decide": 3784,
      "fearless": 3785,
      "raining": 3786,
      "betrog": 3787,
      "flexibler": 3788,
      "beruhigen": 3789,
      "annoys": 3790,
      "improvised": 3791,
      "certain": 3792,
      "filme": 3793,
      "grumbled": 3794,
      "message": 3795,
      "mouse": 3796,
      "gefangene": 3797,
      "schicken": 3798,
      "verpiss": 3799,
      "dollar": 3800,
      "attention": 3801,
      "aufgehalten": 3802,
      "zeichen": 3803,
      "zeichne": 3804,
      "frankreich": 3805,
      "entschuldigen": 3806,
      "entschuldige": 3807,
      "angeln": 3808,
      "objected": 3809,
      "adopted": 3810,
      "adoptiert": 3811,
      "snowed": 3812,
      "wider": 3813,
      "erklaren": 3814,
      "recyce": 3815,
      "recycle": 3816,
      "strengt": 3817,
      "theirs": 3818,
      "benutzen": 3819,
      "addict": 3820,
      "addicted": 3821,
      "kostet": 3822,
      "writes": 3823,
      "writing": 3824,
      "drowning": 3825,
      "amazing": 3826,
      "banan": 3827,
      "empty": 3828,
      "kaufe": 3829,
      "practicing": 3830,
      "sneezing": 3831,
      "erblindete": 3832,
      "einzuwenden": 3833,
      "beauty": 3834,
      "wears": 3835,
      "tratschen": 3836,
      "advice": 3837,
      "brille": 3838,
      "schwester": 3839,
      "furchtlos": 3840,
      "different": 3841,
      "studiere": 3842,
      "amerikaner": 3843,
      "aunt": 3844,
      "doubts": 3845,
      "fuchs": 3846,
      "honest": 3847,
      "kicherte": 3848,
      "kirche": 3849,
      "kunst": 3850,
      "landkarte": 3851,
      "natur": 3852,
      "slapped": 3853,
      "salty": 3854,
      "women": 3855,
      "erschossen": 3856,
      "erwischen": 3857,
      "animals": 3858,
      "repariere": 3859,
      "schummel": 3860,
      "feigling": 3861,
      "generous": 3862,
      "admire": 3863,
      "joggen": 3864,
      "uberraschung": 3865,
      "coughing": 3866,
      "exaggerated": 3867,
      "unterrichte": 3868,
      "krankenschwester": 3869,
      "conscious": 3870,
      "surprise": 3871,
      "risiko": 3872,
      "polizist": 3873,
      "hubsch": 3874,
      "puzzles": 3875,
      "decisive": 3876,
      "diabetic": 3877,
      "diabetiker": 3878,
      "blodmann": 3879,
      "sympathize": 3880,
      "fantastic": 3881,
      "camera": 3882,
      "ditched": 3883,
      "flasche": 3884,
      "iping": 3885,
      "sommer": 3886,
      "zwilling": 3887,
      "church": 3888,
      "christmas": 3889,
      "erreichen": 3890,
      "together": 3891,
      "tongue": 3892,
      "astronom": 3893,
      "heiliger": 3894,
      "reliable": 3895,
      "gewarnt": 3896,
      "gehauen": 3897,
      "bewaffnet": 3898,
      "undressing": 3899,
      "unmoralisch": 3900,
      "schmutzig": 3901,
      "weihnachten": 3902,
      "verruckter": 3903,
      "verspaten": 3904,
      "verwundet": 3905,
      "verblufft": 3906,
      "vernunftig": 3907,
      "versalzen": 3908,
      "homesick": 3909,
      "deceived": 3910,
      "neidisch": 3911,
      "trotzdem": 3912,
      "zuverlassig": 3913,
      "gossiping": 3914,
      "aufgeblasen": 3915,
      "cooperate": 3916,
      "bottle": 3917,
      "mochtest": 3918,
      "moslem": 3919,
      "foggy": 3920,
      "carpenter": 3921,
      "grozugig": 3922,
      "parties": 3923,
      "discreet": 3924,
      "ai": 3925,
      "ahe": 3926,
      "ages": 3927,
      "ahn": 3928,
      "avo": 3929,
      "aoke": 3930,
      "bb": 3931,
      "bs": 3932,
      "bach": 3933,
      "but": 3934,
      "bic": 3935,
      "base": 3936,
      "baf": 3937,
      "bless": 3938,
      "cn": 3939,
      "cr": 3940,
      "cru": 3941,
      "cts": 3942,
      "creat": 3943,
      "clock": 3944,
      "cised": 3945,
      "dv": 3946,
      "dau": 3947,
      "dor": 3948,
      "dare": 3949,
      "dlich": 3950,
      "dachte": 3951,
      "dded": 3952,
      "ef": 3953,
      "eu": 3954,
      "eight": 3955,
      "eite": 3956,
      "eleg": 3957,
      "ekel": 3958,
      "eigh": 3959,
      "fist": 3960,
      "fein": 3961,
      "fli": 3962,
      "fts": 3963,
      "fste": 3964,
      "fled": 3965,
      "flug": 3966,
      "flag": 3967,
      "gs": 3968,
      "gie": 3969,
      "glo": 3970,
      "gal": 3971,
      "glas": 3972,
      "gant": 3973,
      "gled": 3974,
      "hm": 3975,
      "hick": 3976,
      "hout": 3977,
      "hmt": 3978,
      "high": 3979,
      "ido": 3980,
      "ilo": 3981,
      "ial": 3982,
      "ize": 3983,
      "iant": 3984,
      "ilien": 3985,
      "jam": 3986,
      "jagt": 3987,
      "jerk": 3988,
      "jubel": 3989,
      "ka": 3990,
      "kre": 3991,
      "kte": 3992,
      "kse": 3993,
      "kten": 3994,
      "klu": 3995,
      "krie": 3996,
      "kase": 3997,
      "kna": 3998,
      "kater": 3999,
      "kreat": 4000,
      "kicked": 4001,
      "kzeug": 4002,
      "ln": 4003,
      "lp": 4004,
      "lor": 4005,
      "lat": 4006,
      "lach": 4007,
      "lay": 4008,
      "lant": 4009,
      "link": 4010,
      "lend": 4011,
      "lper": 4012,
      "langer": 4013,
      "lky": 4014,
      "large": 4015,
      "md": 4016,
      "mst": 4017,
      "mte": 4018,
      "mlich": 4019,
      "misch": 4020,
      "mpt": 4021,
      "nich": 4022,
      "nes": 4023,
      "non": 4024,
      "nau": 4025,
      "nant": 4026,
      "ness": 4027,
      "nuchtern": 4028,
      "nungen": 4029,
      "och": 4030,
      "osen": 4031,
      "ofen": 4032,
      "ota": 4033,
      "omed": 4034,
      "ocd": 4035,
      "ostern": 4036,
      "py": 4037,
      "pon": 4038,
      "pig": 4039,
      "pho": 4040,
      "pill": 4041,
      "phabe": 4042,
      "pet": 4043,
      "ply": 4044,
      "prie": 4045,
      "punk": 4046,
      "pian": 4047,
      "preg": 4048,
      "push": 4049,
      "purist": 4050,
      "pity": 4051,
      "pounds": 4052,
      "pfund": 4053,
      "pilo": 4054,
      "ring": 4055,
      "rid": 4056,
      "rind": 4057,
      "rut": 4058,
      "rag": 4059,
      "rab": 4060,
      "rlich": 4061,
      "ritt": 4062,
      "rucht": 4063,
      "ritten": 4064,
      "sas": 4065,
      "seinen": 4066,
      "sand": 4067,
      "shar": 4068,
      "scold": 4069,
      "shan": 4070,
      "sanger": 4071,
      "sachte": 4072,
      "sible": 4073,
      "skept": 4074,
      "swurdig": 4075,
      "shout": 4076,
      "ther": 4077,
      "tus": 4078,
      "tier": 4079,
      "till": 4080,
      "tuch": 4081,
      "tter": 4082,
      "tab": 4083,
      "tlich": 4084,
      "tti": 4085,
      "tank": 4086,
      "tiere": 4087,
      "ub": 4088,
      "ult": 4089,
      "ubrig": 4090,
      "va": 4091,
      "vin": 4092,
      "vid": 4093,
      "vag": 4094,
      "vable": 4095,
      "vage": 4096,
      "vati": 4097,
      "wat": 4098,
      "wide": 4099,
      "wish": 4100,
      "whis": 4101,
      "wache": 4102,
      "xt": 4103,
      "xist": 4104,
      "xious": 4105,
      "yen": 4106,
      "ying": 4107,
      "ycle": 4108,
      "yota": 4109,
      "zit": 4110,
      "zwe": 4111,
      "zten": 4112,
      "zil": 4113,
      "zwan": 4114,
      "zwink": 4115,
      "chan": 4116,
      "chauf": 4117,
      "chter": 4118,
      "chsel": 4119,
      "chtet": 4120,
      "chuck": 4121,
      "choking": 4122,
      "era": 4123,
      "ertr": 4124,
      "erung": 4125,
      "erwarten": 4126,
      "ergab": 4127,
      "erschreck": 4128,
      "erzahle": 4129,
      "erwachsen": 4130,
      "ercised": 4131,
      "enre": 4132,
      "enor": 4133,
      "ented": 4134,
      "enlos": 4135,
      "enlist": 4136,
      "enga": 4137,
      "enspann": 4138,
      "ini": 4139,
      "inn": 4140,
      "inse": 4141,
      "insp": 4142,
      "inken": 4143,
      "intell": 4144,
      "iness": 4145,
      "intern": 4146,
      "inched": 4147,
      "tote": 4148,
      "toten": 4149,
      "tofu": 4150,
      "toler": 4151,
      "toyota": 4152,
      "ische": 4153,
      "haar": 4154,
      "haup": 4155,
      "having": 4156,
      "esst": 4157,
      "esor": 4158,
      "ests": 4159,
      "esent": 4160,
      "anal": 4161,
      "anzen": 4162,
      "anfan": 4163,
      "anzug": 4164,
      "anprobieren": 4165,
      "anxious": 4166,
      "ason": 4167,
      "asth": 4168,
      "asso": 4169,
      "assen": 4170,
      "astro": 4171,
      "asilien": 4172,
      "iten": 4173,
      "oud": 4174,
      "iste": 4175,
      "istin": 4176,
      "isted": 4177,
      "istet": 4178,
      "istete": 4179,
      "heie": 4180,
      "heir": 4181,
      "heits": 4182,
      "hetic": 4183,
      "hetti": 4184,
      "eines": 4185,
      "einig": 4186,
      "eingesch": 4187,
      "eingeb": 4188,
      "einige": 4189,
      "regen": 4190,
      "reten": 4191,
      "reag": 4192,
      "rept": 4193,
      "relied": 4194,
      "rebel": 4195,
      "relief": 4196,
      "regend": 4197,
      "reason": 4198,
      "gela": 4199,
      "gehalten": 4200,
      "gelesen": 4201,
      "gefuhr": 4202,
      "gekn": 4203,
      "gefiel": 4204,
      "gehasst": 4205,
      "gekocht": 4206,
      "gebrauch": 4207,
      "geantwortet": 4208,
      "stie": 4209,
      "stes": 4210,
      "stun": 4211,
      "stro": 4212,
      "sturz": 4213,
      "bete": 4214,
      "beun": 4215,
      "behave": 4216,
      "betet": 4217,
      "befre": 4218,
      "belang": 4219,
      "bewahr": 4220,
      "bellen": 4221,
      "beachte": 4222,
      "behalte": 4223,
      "beard": 4224,
      "bedien": 4225,
      "beachten": 4226,
      "bekennen": 4227,
      "behaltet": 4228,
      "bezahle": 4229,
      "beiden": 4230,
      "beherr": 4231,
      "bemerkt": 4232,
      "beeile": 4233,
      "bezauber": 4234,
      "behandle": 4235,
      "beef": 4236,
      "llt": 4237,
      "irdo": 4238,
      "onkel": 4239,
      "arro": 4240,
      "army": 4241,
      "arsam": 4242,
      "argere": 4243,
      "teil": 4244,
      "tepp": 4245,
      "temp": 4246,
      "teased": 4247,
      "tempt": 4248,
      "unbe": 4249,
      "unver": 4250,
      "unso": 4251,
      "unnen": 4252,
      "uneasy": 4253,
      "unwahr": 4254,
      "uncle": 4255,
      "unbelie": 4256,
      "untal": 4257,
      "unversichert": 4258,
      "unmoglich": 4259,
      "unconscious": 4260,
      "auth": 4261,
      "aubt": 4262,
      "austr": 4263,
      "memor": 4264,
      "leun": 4265,
      "leih": 4266,
      "ledi": 4267,
      "leite": 4268,
      "lehnte": 4269,
      "leistete": 4270,
      "seht": 4271,
      "secur": 4272,
      "sepet": 4273,
      "sexist": 4274,
      "hats": 4275,
      "ima": 4276,
      "scht": 4277,
      "schat": 4278,
      "schop": 4279,
      "schlau": 4280,
      "schluck": 4281,
      "schalte": 4282,
      "schritt": 4283,
      "orts": 4284,
      "weich": 4285,
      "weckt": 4286,
      "wechsel": 4287,
      "weirdo": 4288,
      "ingend": 4289,
      "verlo": 4290,
      "vergib": 4291,
      "verstand": 4292,
      "verbre": 4293,
      "verhunger": 4294,
      "versagen": 4295,
      "verga": 4296,
      "vertre": 4297,
      "versprechen": 4298,
      "verirrt": 4299,
      "verbrechen": 4300,
      "verpasst": 4301,
      "vermahl": 4302,
      "verboten": 4303,
      "verrucht": 4304,
      "matik": 4305,
      "matter": 4306,
      "igte": 4307,
      "igent": 4308,
      "hotel": 4309,
      "noon": 4310,
      "nodded": 4311,
      "dug": 4312,
      "dus": 4313,
      "dev": 4314,
      "wirs": 4315,
      "dosen": 4316,
      "doof": 4317,
      "dozed": 4318,
      "doomed": 4319,
      "low": 4320,
      "loosen": 4321,
      "neck": 4322,
      "nebl": 4323,
      "next": 4324,
      "werd": 4325,
      "wers": 4326,
      "werkzeug": 4327,
      "kei": 4328,
      "kehr": 4329,
      "kekse": 4330,
      "urn": 4331,
      "urous": 4332,
      "urteile": 4333,
      "urai": 4334,
      "atta": 4335,
      "atmet": 4336,
      "atlant": 4337,
      "ids": 4338,
      "iday": 4339,
      "idung": 4340,
      "idio": 4341,
      "herauf": 4342,
      "hermit": 4343,
      "hervor": 4344,
      "theor": 4345,
      "wasche": 4346,
      "trag": 4347,
      "trap": 4348,
      "tresor": 4349,
      "aloud": 4350,
      "fele": 4351,
      "feed": 4352,
      "feur": 4353,
      "feger": 4354,
      "feucht": 4355,
      "fetch": 4356,
      "zuge": 4357,
      "zulassen": 4358,
      "zuhoren": 4359,
      "zugehort": 4360,
      "zuchte": 4361,
      "zugelassen": 4362,
      "zucker": 4363,
      "zufrieden": 4364,
      "zubereitet": 4365,
      "amm": 4366,
      "amt": 4367,
      "ambus": 4368,
      "thr": 4369,
      "then": 4370,
      "goes": 4371,
      "ierten": 4372,
      "iergang": 4373,
      "indlig": 4374,
      "wart": 4375,
      "warts": 4376,
      "ached": 4377,
      "achlich": 4378,
      "achtet": 4379,
      "achzte": 4380,
      "denk": 4381,
      "illiterate": 4382,
      "aufstand": 4383,
      "aufgegangen": 4384,
      "aufgebracht": 4385,
      "aufrichtig": 4386,
      "aufgeschlossen": 4387,
      "aufmerk": 4388,
      "aufgaben": 4389,
      "aufregend": 4390,
      "candy": 4391,
      "cance": 4392,
      "cancer": 4393,
      "diet": 4394,
      "utte": 4395,
      "lieg": 4396,
      "liege": 4397,
      "roch": 4398,
      "rosen": 4399,
      "roof": 4400,
      "ross": 4401,
      "roses": 4402,
      "cost": 4403,
      "coat": 4404,
      "color": 4405,
      "lived": 4406,
      "lives": 4407,
      "lips": 4408,
      "livid": 4409,
      "uche": 4410,
      "sol": 4411,
      "sober": 4412,
      "soap": 4413,
      "sohne": 4414,
      "gespr": 4415,
      "gesungen": 4416,
      "gespie": 4417,
      "spin": 4418,
      "spag": 4419,
      "spread": 4420,
      "sparsam": 4421,
      "sports": 4422,
      "komod": 4423,
      "gerin": 4424,
      "lasag": 4425,
      "sensible": 4426,
      "sale": 4427,
      "mention": 4428,
      "menschen": 4429,
      "thisll": 4430,
      "rug": 4431,
      "ruber": 4432,
      "rupt": 4433,
      "rulp": 4434,
      "lated": 4435,
      "upfen": 4436,
      "brand": 4437,
      "brush": 4438,
      "brasilien": 4439,
      "brunnen": 4440,
      "sheep": 4441,
      "bore": 4442,
      "bowed": 4443,
      "boses": 4444,
      "terte": 4445,
      "fenster": 4446,
      "unsinn": 4447,
      "ungs": 4448,
      "helden": 4449,
      "helft": 4450,
      "aggr": 4451,
      "cheap": 4452,
      "cheered": 4453,
      "chemist": 4454,
      "chemie": 4455,
      "zei": 4456,
      "zeuge": 4457,
      "ausam": 4458,
      "umbringen": 4459,
      "umarme": 4460,
      "hierhin": 4461,
      "abhor": 4462,
      "abser": 4463,
      "absur": 4464,
      "abgeschlossen": 4465,
      "abgeschnitten": 4466,
      "absent": 4467,
      "frat": 4468,
      "frisch": 4469,
      "friert": 4470,
      "fuse": 4471,
      "fuball": 4472,
      "entkamen": 4473,
      "enturous": 4474,
      "ilt": 4475,
      "iles": 4476,
      "ildet": 4477,
      "lichen": 4478,
      "meiner": 4479,
      "gift": 4480,
      "gives": 4481,
      "gifts": 4482,
      "wahle": 4483,
      "icer": 4484,
      "ices": 4485,
      "ical": 4486,
      "stell": 4487,
      "steigt": 4488,
      "wow": 4489,
      "wore": 4490,
      "woher": 4491,
      "wood": 4492,
      "wohnen": 4493,
      "hasste": 4494,
      "favor": 4495,
      "faint": 4496,
      "fainted": 4497,
      "appe": 4498,
      "apart": 4499,
      "form": 4500,
      "forder": 4501,
      "forty": 4502,
      "tiful": 4503,
      "drauf": 4504,
      "drachen": 4505,
      "dringend": 4506,
      "konzen": 4507,
      "kontro": 4508,
      "date": 4509,
      "dahin": 4510,
      "mitleid": 4511,
      "mitarbeiten": 4512,
      "mitbringen": 4513,
      "miteinander": 4514,
      "moaned": 4515,
      "mogelt": 4516,
      "guten": 4517,
      "gutig": 4518,
      "gutgehen": 4519,
      "helping": 4520,
      "letten": 4521,
      "letzte": 4522,
      "stock": 4523,
      "stoned": 4524,
      "fotogen": 4525,
      "nachstes": 4526,
      "machtlos": 4527,
      "business": 4528,
      "bites": 4529,
      "wned": 4530,
      "reif": 4531,
      "reihe": 4532,
      "wellenre": 4533,
      "ferien": 4534,
      "voran": 4535,
      "voruber": 4536,
      "vorsicht": 4537,
      "vorfuhrung": 4538,
      "vorbereitet": 4539,
      "vorurteile": 4540,
      "window": 4541,
      "sues": 4542,
      "beitrage": 4543,
      "beitrag": 4544,
      "ople": 4545,
      "losgehen": 4546,
      "hurried": 4547,
      "ugal": 4548,
      "redhead": 4549,
      "arbeitest": 4550,
      "ganzen": 4551,
      "ganfall": 4552,
      "plead": 4553,
      "turkey": 4554,
      "turkei": 4555,
      "schweine": 4556,
      "schwanger": 4557,
      "schwierig": 4558,
      "schwamm": 4559,
      "schwindlig": 4560,
      "geschri": 4561,
      "proceed": 4562,
      "ries": 4563,
      "niese": 4564,
      "niece": 4565,
      "nieman": 4566,
      "niemanden": 4567,
      "niedlich": 4568,
      "singer": 4569,
      "starve": 4570,
      "starved": 4571,
      "furious": 4572,
      "furchten": 4573,
      "uberaus": 4574,
      "ubernimm": 4575,
      "ubergeben": 4576,
      "ubersinn": 4577,
      "ubergew": 4578,
      "uberfallen": 4579,
      "uberzeug": 4580,
      "wurden": 4581,
      "wurfele": 4582,
      "witness": 4583,
      "anky": 4584,
      "ankte": 4585,
      "beschleun": 4586,
      "beschamt": 4587,
      "rate": 4588,
      "ragend": 4589,
      "freaked": 4590,
      "fremd": 4591,
      "setzt": 4592,
      "celer": 4593,
      "justice": 4594,
      "nochmals": 4595,
      "darauf": 4596,
      "daruber": 4597,
      "fasten": 4598,
      "faster": 4599,
      "people": 4600,
      "backte": 4601,
      "versuchte": 4602,
      "versuchten": 4603,
      "older": 4604,
      "grote": 4605,
      "naked": 4606,
      "inked": 4607,
      "harder": 4608,
      "exercised": 4609,
      "seife": 4610,
      "verliere": 4611,
      "angelt": 4612,
      "angehalten": 4613,
      "angefasst": 4614,
      "akes": 4615,
      "akze": 4616,
      "eats": 4617,
      "langgeht": 4618,
      "sicherheits": 4619,
      "blush": 4620,
      "blenden": 4621,
      "blinked": 4622,
      "kobe": 4623,
      "merry": 4624,
      "schlag": 4625,
      "schlage": 4626,
      "schlafrig": 4627,
      "schlaganfall": 4628,
      "waiting": 4629,
      "gluckwun": 4630,
      "vielen": 4631,
      "officer": 4632,
      "affe": 4633,
      "fanat": 4634,
      "grau": 4635,
      "grab": 4636,
      "grausam": 4637,
      "hundem": 4638,
      "begun": 4639,
      "begleite": 4640,
      "amed": 4641,
      "kampfe": 4642,
      "kamera": 4643,
      "poss": 4644,
      "lebendig": 4645,
      "untersuchen": 4646,
      "unterbrechen": 4647,
      "unterricht": 4648,
      "unterwegs": 4649,
      "zuruckgehen": 4650,
      "zuruckkommen": 4651,
      "deinem": 4652,
      "walks": 4653,
      "darfst": 4654,
      "present": 4655,
      "prima": 4656,
      "rucken": 4657,
      "betrachte": 4658,
      "netz": 4659,
      "achtzehn": 4660,
      "wiedergesehen": 4661,
      "zeitig": 4662,
      "schuldest": 4663,
      "conc": 4664,
      "convin": 4665,
      "comfort": 4666,
      "complain": 4667,
      "comics": 4668,
      "broken": 4669,
      "anders": 4670,
      "atert": 4671,
      "bringt": 4672,
      "schaute": 4673,
      "schauten": 4674,
      "danken": 4675,
      "danced": 4676,
      "shower": 4677,
      "leidtun": 4678,
      "schreibe": 4679,
      "jemals": 4680,
      "surfen": 4681,
      "neuen": 4682,
      "neuigkeit": 4683,
      "konntet": 4684,
      "sterbe": 4685,
      "ungezogen": 4686,
      "easter": 4687,
      "insisted": 4688,
      "schlicht": 4689,
      "guessed": 4690,
      "guests": 4691,
      "runner": 4692,
      "ziemlich": 4693,
      "sollst": 4694,
      "plants": 4695,
      "park": 4696,
      "party": 4697,
      "partner": 4698,
      "samurai": 4699,
      "ruhigt": 4700,
      "hip": 4701,
      "hols": 4702,
      "holiday": 4703,
      "boys": 4704,
      "fortgehen": 4705,
      "fortfahren": 4706,
      "glad": 4707,
      "klar": 4708,
      "kusste": 4709,
      "smiling": 4710,
      "hangt": 4711,
      "gelig": 4712,
      "gelacht": 4713,
      "beginner": 4714,
      "misunderstood": 4715,
      "taste": 4716,
      "tasted": 4717,
      "tasty": 4718,
      "rette": 4719,
      "scherzen": 4720,
      "hopeless": 4721,
      "zumute": 4722,
      "fuhlst": 4723,
      "brem": 4724,
      "ture": 4725,
      "tured": 4726,
      "fehlen": 4727,
      "safely": 4728,
      "played": 4729,
      "clear": 4730,
      "morti": 4731,
      "morons": 4732,
      "panic": 4733,
      "melde": 4734,
      "melons": 4735,
      "melonen": 4736,
      "bart": 4737,
      "baren": 4738,
      "barking": 4739,
      "ghty": 4740,
      "liste": 4741,
      "wetter": 4742,
      "versteck": 4743,
      "ihrem": 4744,
      "spieler": 4745,
      "spielte": 4746,
      "langweilen": 4747,
      "bulky": 4748,
      "built": 4749,
      "borrow": 4750,
      "cutie": 4751,
      "eilte": 4752,
      "glauben": 4753,
      "misses": 4754,
      "nutze": 4755,
      "sky": 4756,
      "skitt": 4757,
      "skurr": 4758,
      "cookies": 4759,
      "speck": 4760,
      "aced": 4761,
      "acts": 4762,
      "acquit": 4763,
      "across": 4764,
      "acceler": 4765,
      "reingelegt": 4766,
      "sons": 4767,
      "wachen": 4768,
      "wachte": 4769,
      "zog": 4770,
      "zoo": 4771,
      "gedacht": 4772,
      "bedacht": 4773,
      "faust": 4774,
      "jedes": 4775,
      "jedem": 4776,
      "tante": 4777,
      "tanzt": 4778,
      "hinterhalt": 4779,
      "ffic": 4780,
      "humor": 4781,
      "paar": 4782,
      "viele": 4783,
      "wenn": 4784,
      "passierte": 4785,
      "disagree": 4786,
      "disagreed": 4787,
      "fluch": 4788,
      "fluss": 4789,
      "flinched": 4790,
      "sauce": 4791,
      "schieden": 4792,
      "brotler": 4793,
      "blumen": 4794,
      "raum": 4795,
      "shaved": 4796,
      "timing": 4797,
      "internet": 4798,
      "locked": 4799,
      "funktionierts": 4800,
      "listens": 4801,
      "listened": 4802,
      "speaking": 4803,
      "giraffe": 4804,
      "kopie": 4805,
      "rassist": 4806,
      "schoss": 4807,
      "hereingelegt": 4808,
      "liebenswurdig": 4809,
      "friendly": 4810,
      "beruf": 4811,
      "counting": 4812,
      "erinnerte": 4813,
      "nutzlich": 4814,
      "blame": 4815,
      "flies": 4816,
      "frost": 4817,
      "frowned": 4818,
      "fruhau": 4819,
      "frugal": 4820,
      "klavier": 4821,
      "lenkte": 4822,
      "resist": 4823,
      "resig": 4824,
      "respe": 4825,
      "super": 4826,
      "viar": 4827,
      "viol": 4828,
      "haltst": 4829,
      "ansicht": 4830,
      "beweis": 4831,
      "beweise": 4832,
      "trager": 4833,
      "tripped": 4834,
      "rotschop": 4835,
      "fragst": 4836,
      "remembered": 4837,
      "curse": 4838,
      "gartner": 4839,
      "karaoke": 4840,
      "tief": 4841,
      "treu": 4842,
      "treten": 4843,
      "treffen": 4844,
      "tatsache": 4845,
      "hausfrau": 4846,
      "hausaufgaben": 4847,
      "schmerz": 4848,
      "genauer": 4849,
      "vorbeigekommen": 4850,
      "skiing": 4851,
      "bags": 4852,
      "damlich": 4853,
      "dads": 4854,
      "mutze": 4855,
      "summst": 4856,
      "gewann": 4857,
      "gewiss": 4858,
      "geweint": 4859,
      "argerte": 4860,
      "doctors": 4861,
      "martini": 4862,
      "halften": 4863,
      "fallenlassen": 4864,
      "gerechtigkeit": 4865,
      "kopfig": 4866,
      "kopfschmerzen": 4867,
      "burped": 4868,
      "burns": 4869,
      "digging": 4870,
      "knicken": 4871,
      "pferden": 4872,
      "slower": 4873,
      "satt": 4874,
      "saturn": 4875,
      "thank": 4876,
      "which": 4877,
      "believed": 4878,
      "cheats": 4879,
      "antwortete": 4880,
      "langsamer": 4881,
      "smelled": 4882,
      "gasped": 4883,
      "owl": 4884,
      "owls": 4885,
      "ohrfe": 4886,
      "pens": 4887,
      "place": 4888,
      "pizz": 4889,
      "schnapp": 4890,
      "schnarcht": 4891,
      "schnupfen": 4892,
      "schmeck": 4893,
      "schmeckt": 4894,
      "orrekt": 4895,
      "geniee": 4896,
      "gehoren": 4897,
      "gehorcht": 4898,
      "gestimmt": 4899,
      "spielt": 4900,
      "bescheuert": 4901,
      "musician": 4902,
      "polizei": 4903,
      "faulpel": 4904,
      "answered": 4905,
      "obeys": 4906,
      "optimistic": 4907,
      "druckte": 4908,
      "farbe": 4909,
      "farben": 4910,
      "graben": 4911,
      "huge": 4912,
      "chines": 4913,
      "chinese": 4914,
      "itert": 4915,
      "geleistet": 4916,
      "entspannt": 4917,
      "kontrolliert": 4918,
      "fassung": 4919,
      "vollkommen": 4920,
      "wunderschon": 4921,
      "wunderbar": 4922,
      "franzose": 4923,
      "cafe": 4924,
      "druber": 4925,
      "fies": 4926,
      "fieber": 4927,
      "louder": 4928,
      "salz": 4929,
      "angestellt": 4930,
      "straf": 4931,
      "straight": 4932,
      "stinks": 4933,
      "vergnu": 4934,
      "gesundheit": 4935,
      "sagtest": 4936,
      "besteht": 4937,
      "driven": 4938,
      "driving": 4939,
      "blinzelte": 4940,
      "koreaner": 4941,
      "koreanisch": 4942,
      "spaziergang": 4943,
      "housewife": 4944,
      "durcheinander": 4945,
      "blickte": 4946,
      "gruen": 4947,
      "names": 4948,
      "gefangener": 4949,
      "stirb": 4950,
      "stirbt": 4951,
      "learns": 4952,
      "verkatert": 4953,
      "verpetzt": 4954,
      "verabschie": 4955,
      "nearly": 4956,
      "attentive": 4957,
      "besitze": 4958,
      "frankly": 4959,
      "apologized": 4960,
      "laughing": 4961,
      "offnete": 4962,
      "guys": 4963,
      "falschung": 4964,
      "billig": 4965,
      "dachschaden": 4966,
      "futtert": 4967,
      "masoch": 4968,
      "mista": 4969,
      "patient": 4970,
      "pathetic": 4971,
      "pflanzen": 4972,
      "soul": 4973,
      "soup": 4974,
      "sichtlich": 4975,
      "smaller": 4976,
      "snob": 4977,
      "windy": 4978,
      "windig": 4979,
      "erklare": 4980,
      "strengen": 4981,
      "armee": 4982,
      "teenager": 4983,
      "ordered": 4984,
      "verklagen": 4985,
      "benutzt": 4986,
      "soldat": 4987,
      "soldier": 4988,
      "gescheitert": 4989,
      "entschuldigte": 4990,
      "wahnsinn": 4991,
      "kostenlos": 4992,
      "posted": 4993,
      "glatt": 4994,
      "interessant": 4995,
      "interessiert": 4996,
      "interessierts": 4997,
      "drowned": 4998,
      "verschwenderisch": 4999,
      "pfeife": 5000,
      "amazed": 5001,
      "eigenartig": 5002,
      "eigenbrotler": 5003,
      "krafte": 5004,
      "krawat": 5005,
      "maui": 5006,
      "screaming": 5007,
      "erblindet": 5008,
      "heulte": 5009,
      "geister": 5010,
      "beautiful": 5011,
      "bezahlte": 5012,
      "bewundere": 5013,
      "leidet": 5014,
      "scheinst": 5015,
      "scheinlich": 5016,
      "mathematik": 5017,
      "trinkt": 5018,
      "adventurous": 5019,
      "brav": 5020,
      "brazil": 5021,
      "winkte": 5022,
      "schwestern": 5023,
      "furchtbar": 5024,
      "schulde": 5025,
      "schulden": 5026,
      "merkwurdig": 5027,
      "grimassen": 5028,
      "grimaced": 5029,
      "rechtsanwalt": 5030,
      "mondays": 5031,
      "bacon": 5032,
      "donut": 5033,
      "donner": 5034,
      "ffeln": 5035,
      "giggled": 5036,
      "games": 5037,
      "miesepet": 5038,
      "nackt": 5039,
      "nacken": 5040,
      "pingelig": 5041,
      "picky": 5042,
      "romant": 5043,
      "rapper": 5044,
      "raucher": 5045,
      "snag": 5046,
      "sisters": 5047,
      "togenic": 5048,
      "sturmte": 5049,
      "behaved": 5050,
      "unlocked": 5051,
      "ignorier": 5052,
      "travel": 5053,
      "traveling": 5054,
      "feiern": 5055,
      "amusieren": 5056,
      "ausgebrochen": 5057,
      "entscheiden": 5058,
      "approved": 5059,
      "turkish": 5060,
      "wurfeln": 5061,
      "schlafst": 5062,
      "powerless": 5063,
      "praying": 5064,
      "betrugt": 5065,
      "wonderful": 5066,
      "accept": 5067,
      "acceptable": 5068,
      "meditiere": 5069,
      "meditating": 5070,
      "frohliche": 5071,
      "tatsachen": 5072,
      "tatsachlich": 5073,
      "policeman": 5074,
      "italiener": 5075,
      "italienerin": 5076,
      "improvisiert": 5077,
      "verabscheue": 5078,
      "ghosts": 5079,
      "hiccups": 5080,
      "beinahe": 5081,
      "baby": 5082,
      "bugs": 5083,
      "cash": 5084,
      "camp": 5085,
      "crime": 5086,
      "flowers": 5087,
      "hiring": 5088,
      "kneeled": 5089,
      "mumm": 5090,
      "narr": 5091,
      "nickte": 5092,
      "picasso": 5093,
      "polit": 5094,
      "portugal": 5095,
      "sushi": 5096,
      "squinted": 5097,
      "scary": 5098,
      "snoring": 5099,
      "wallet": 5100,
      "charming": 5101,
      "erlaube": 5102,
      "erleichterung": 5103,
      "isolated": 5104,
      "recovered": 5105,
      "geduldig": 5106,
      "stifte": 5107,
      "stabbed": 5108,
      "stimmte": 5109,
      "beharrlich": 5110,
      "beangstig": 5111,
      "leugnen": 5112,
      "seventeen": 5113,
      "schimpfte": 5114,
      "verbrannt": 5115,
      "atheist": 5116,
      "herzlichen": 5117,
      "aufzuhalten": 5118,
      "college": 5119,
      "geschenke": 5120,
      "ruined": 5121,
      "brennt": 5122,
      "ausgeraubt": 5123,
      "movies": 5124,
      "ubertrieben": 5125,
      "racist": 5126,
      "freigesprochen": 5127,
      "examine": 5128,
      "kooperieren": 5129,
      "confessed": 5130,
      "computer": 5131,
      "historian": 5132,
      "klatschte": 5133,
      "smoker": 5134,
      "flatter": 5135,
      "prepared": 5136,
      "widersprach": 5137,
      "kunstler": 5138,
      "naturlich": 5139,
      "astronomy": 5140,
      "ahnung": 5141,
      "avoids": 5142,
      "bbc": 5143,
      "bicycle": 5144,
      "baseball": 5145,
      "baffled": 5146,
      "cnn": 5147,
      "cranky": 5148,
      "cruel": 5149,
      "creative": 5150,
      "dvd": 5151,
      "eulen": 5152,
      "eitel": 5153,
      "elegant": 5154,
      "ekelhaft": 5155,
      "eighteen": 5156,
      "fsteher": 5157,
      "flugzeug": 5158,
      "idol": 5159,
      "krebs": 5160,
      "kluger": 5161,
      "krieg": 5162,
      "kreativ": 5163,
      "linkshan": 5164,
      "nichte": 5165,
      "naughty": 5166,
      "pony": 5167,
      "pigs": 5168,
      "photogenic": 5169,
      "pills": 5170,
      "phabet": 5171,
      "piano": 5172,
      "pregnant": 5173,
      "rindfleisch": 5174,
      "rabbi": 5175,
      "tabletten": 5176,
      "vague": 5177,
      "whisky": 5178,
      "zwinkerte": 5179,
      "chances": 5180,
      "chauffeur": 5181,
      "chuckled": 5182,
      "ertrunken": 5183,
      "enorm": 5184,
      "enlisted": 5185,
      "engaged": 5186,
      "insekten": 5187,
      "intelligent": 5188,
      "interns": 5189,
      "tolerant": 5190,
      "haupt": 5191,
      "analphabet": 5192,
      "asthma": 5193,
      "astrolog": 5194,
      "heirate": 5195,
      "eingeschritten": 5196,
      "eingebildet": 5197,
      "reptiles": 5198,
      "gelahmt": 5199,
      "gefuhrt": 5200,
      "stunned": 5201,
      "stroke": 5202,
      "sturzte": 5203,
      "beunruhigt": 5204,
      "befreundet": 5205,
      "beherrsche": 5206,
      "bezaubernd": 5207,
      "arrogant": 5208,
      "teppich": 5209,
      "tempted": 5210,
      "unwahrscheinlich": 5211,
      "unbelievable": 5212,
      "untalented": 5213,
      "author": 5214,
      "austral": 5215,
      "memorize": 5216,
      "ledige": 5217,
      "security": 5218,
      "schluckauf": 5219,
      "wechselgeld": 5220,
      "verlobt": 5221,
      "verhungert": 5222,
      "vertreter": 5223,
      "vermahlt": 5224,
      "neblig": 5225,
      "attack": 5226,
      "atlantis": 5227,
      "idioten": 5228,
      "hervorragend": 5229,
      "ambush": 5230,
      "aufmerksam": 5231,
      "canceled": 5232,
      "colorblind": 5233,
      "spaghetti": 5234,
      "aggress": 5235,
      "chemistry": 5236,
      "abserviert": 5237,
      "absurd": 5238,
      "konzentr": 5239,
      "kontrolle": 5240,
      "geschrien": 5241,
      "niemandem": 5242,
      "ubersinnliche": 5243,
      "ubergewichtig": 5244,
      "uberzeugt": 5245,
      "sicherheitsdienst": 5246,
      "blushing": 5247,
      "blendend": 5248,
      "gluckwunsch": 5249,
      "hundemude": 5250,
      "possible": 5251,
      "convinced": 5252,
      "skittish": 5253,
      "skurril": 5254,
      "acquitted": 5255,
      "accelerated": 5256,
      "fruhaufsteher": 5257,
      "rotschopf": 5258,
      "faulpelz": 5259,
      "vergnugen": 5260,
      "masochist": 5261,
      "krawatte": 5262,
      "miesepeter": 5263,
      "linkshander": 5264,
      "adu": 5265,
      "aid": 5266,
      "ago": 5267,
      "agen": 5268,
      "ace": 5269,
      "aot": 5270,
      "aven": 5271,
      "ahnt": 5272,
      "ahnte": 5273,
      "bie": 5274,
      "bir": 5275,
      "bau": 5276,
      "bat": 5277,
      "bid": 5278,
      "bben": 5279,
      "beine": 5280,
      "bliebe": 5281,
      "bade": 5282,
      "bank": 5283,
      "bish": 5284,
      "buck": 5285,
      "balle": 5286,
      "bak": 5287,
      "bsam": 5288,
      "bzehn": 5289,
      "blast": 5290,
      "cir": 5291,
      "clo": 5292,
      "cus": 5293,
      "cla": 5294,
      "clu": 5295,
      "class": 5296,
      "cted": 5297,
      "cred": 5298,
      "cong": 5299,
      "cate": 5300,
      "cess": 5301,
      "ction": 5302,
      "crow": 5303,
      "creme": 5304,
      "cris": 5305,
      "cien": 5306,
      "ctive": 5307,
      "ccer": 5308,
      "city": 5309,
      "ds": 5310,
      "dist": 5311,
      "dicht": 5312,
      "dde": 5313,
      "dwar": 5314,
      "dish": 5315,
      "dler": 5316,
      "dmude": 5317,
      "dling": 5318,
      "dating": 5319,
      "dbren": 5320,
      "ek": 5321,
      "ech": 5322,
      "ehe": 5323,
      "eig": 5324,
      "eur": 5325,
      "eth": 5326,
      "eben": 5327,
      "each": 5328,
      "emy": 5329,
      "ease": 5330,
      "eak": 5331,
      "eisen": 5332,
      "ehm": 5333,
      "fill": 5334,
      "ften": 5335,
      "fad": 5336,
      "fla": 5337,
      "flau": 5338,
      "five": 5339,
      "fange": 5340,
      "fesse": 5341,
      "fzte": 5342,
      "four": 5343,
      "fought": 5344,
      "flog": 5345,
      "fsinnig": 5346,
      "fgelaufen": 5347,
      "git": 5348,
      "gte": 5349,
      "gor": 5350,
      "gne": 5351,
      "gten": 5352,
      "gain": 5353,
      "gnet": 5354,
      "glot": 5355,
      "gler": 5356,
      "gierig": 5357,
      "greifen": 5358,
      "greif": 5359,
      "hing": 5360,
      "hld": 5361,
      "hmen": 5362,
      "hts": 5363,
      "hted": 5364,
      "hiel": 5365,
      "hute": 5366,
      "hsam": 5367,
      "honey": 5368,
      "hones": 5369,
      "hsuchtig": 5370,
      "iver": 5371,
      "iig": 5372,
      "ike": 5373,
      "ife": 5374,
      "ila": 5375,
      "iisch": 5376,
      "iop": 5377,
      "ired": 5378,
      "izen": 5379,
      "iff": 5380,
      "ified": 5381,
      "ju": 5382,
      "jen": 5383,
      "jas": 5384,
      "jok": 5385,
      "kw": 5386,
      "ker": 5387,
      "kas": 5388,
      "kit": 5389,
      "kle": 5390,
      "kno": 5391,
      "kne": 5392,
      "kur": 5393,
      "kro": 5394,
      "kont": 5395,
      "kum": 5396,
      "kund": 5397,
      "kick": 5398,
      "kred": 5399,
      "knie": 5400,
      "kleid": 5401,
      "knur": 5402,
      "kward": 5403,
      "klasse": 5404,
      "kreis": 5405,
      "ktik": 5406,
      "kif": 5407,
      "kunde": 5408,
      "kleide": 5409,
      "kalte": 5410,
      "kriecht": 5411,
      "kiste": 5412,
      "kuche": 5413,
      "korrekt": 5414,
      "lin": 5415,
      "lst": 5416,
      "lon": 5417,
      "licht": 5418,
      "lier": 5419,
      "lern": 5420,
      "lander": 5421,
      "larm": 5422,
      "lernst": 5423,
      "limp": 5424,
      "langes": 5425,
      "lachten": 5426,
      "larme": 5427,
      "literate": 5428,
      "lvertreter": 5429,
      "lkw": 5430,
      "mun": 5431,
      "mle": 5432,
      "mur": 5433,
      "mmen": 5434,
      "mic": 5435,
      "mice": 5436,
      "mort": 5437,
      "mess": 5438,
      "mbar": 5439,
      "mond": 5440,
      "mons": 5441,
      "mundet": 5442,
      "nte": 5443,
      "nus": 5444,
      "nase": 5445,
      "nest": 5446,
      "nannte": 5447,
      "nics": 5448,
      "oar": 5449,
      "ome": 5450,
      "oter": 5451,
      "obes": 5452,
      "opp": 5453,
      "ody": 5454,
      "ohol": 5455,
      "oven": 5456,
      "oons": 5457,
      "ohne": 5458,
      "pm": 5459,
      "pha": 5460,
      "phe": 5461,
      "pun": 5462,
      "pom": 5463,
      "pum": 5464,
      "pant": 5465,
      "pti": 5466,
      "pta": 5467,
      "piel": 5468,
      "pous": 5469,
      "pest": 5470,
      "phil": 5471,
      "phan": 5472,
      "pfle": 5473,
      "pfi": 5474,
      "pac": 5475,
      "prufe": 5476,
      "pannt": 5477,
      "pruf": 5478,
      "purr": 5479,
      "rst": 5480,
      "ror": 5481,
      "rus": 5482,
      "rund": 5483,
      "round": 5484,
      "rase": 5485,
      "ride": 5486,
      "rache": 5487,
      "russ": 5488,
      "ronen": 5489,
      "rkopfig": 5490,
      "sun": 5491,
      "sco": 5492,
      "sli": 5493,
      "shr": 5494,
      "sung": 5495,
      "shave": 5496,
      "sly": 5497,
      "sund": 5498,
      "smar": 5499,
      "szeit": 5500,
      "sspiel": 5501,
      "siz": 5502,
      "scre": 5503,
      "sour": 5504,
      "sloser": 5505,
      "sstudent": 5506,
      "swert": 5507,
      "scow": 5508,
      "scares": 5509,
      "saufen": 5510,
      "sangen": 5511,
      "ship": 5512,
      "scien": 5513,
      "tw": 5514,
      "tz": 5515,
      "tis": 5516,
      "tst": 5517,
      "tte": 5518,
      "tau": 5519,
      "tle": 5520,
      "tid": 5521,
      "tzt": 5522,
      "tles": 5523,
      "tigt": 5524,
      "ttert": 5525,
      "twegen": 5526,
      "tschuss": 5527,
      "tungs": 5528,
      "tcheap": 5529,
      "tbillig": 5530,
      "ues": 5531,
      "ube": 5532,
      "ule": 5533,
      "uben": 5534,
      "ubt": 5535,
      "ubl": 5536,
      "ufel": 5537,
      "ucke": 5538,
      "udig": 5539,
      "ublich": 5540,
      "uages": 5541,
      "uffeln": 5542,
      "udde": 5543,
      "ufzte": 5544,
      "vt": 5545,
      "vis": 5546,
      "val": 5547,
      "vent": 5548,
      "wich": 5549,
      "wes": 5550,
      "wig": 5551,
      "wang": 5552,
      "wand": 5553,
      "west": 5554,
      "wend": 5555,
      "whi": 5556,
      "wimp": 5557,
      "wking": 5558,
      "wandern": 5559,
      "wankte": 5560,
      "xe": 5561,
      "xen": 5562,
      "xted": 5563,
      "yal": 5564,
      "yond": 5565,
      "zir": 5566,
      "zun": 5567,
      "zwer": 5568,
      "zier": 5569,
      "zung": 5570,
      "zwo": 5571,
      "zwin": 5572,
      "ziel": 5573,
      "zard": 5574,
      "zif": 5575,
      "zwis": 5576,
      "zarre": 5577,
      "zarzte": 5578,
      "zial": 5579,
      "zwang": 5580,
      "chim": 5581,
      "chill": 5582,
      "chok": 5583,
      "chent": 5584,
      "chair": 5585,
      "chaltet": 5586,
      "charme": 5587,
      "chilly": 5588,
      "charge": 5589,
      "chicken": 5590,
      "chub": 5591,
      "chaot": 5592,
      "erne": 5593,
      "erro": 5594,
      "eraus": 5595,
      "erwa": 5596,
      "erste": 5597,
      "ersto": 5598,
      "erisch": 5599,
      "erwur": 5600,
      "erfre": 5601,
      "erhalten": 5602,
      "erhol": 5603,
      "ergeben": 5604,
      "ersetz": 5605,
      "erable": 5606,
      "erquick": 5607,
      "erweise": 5608,
      "erals": 5609,
      "erschn": 5610,
      "erschieen": 5611,
      "ergebe": 5612,
      "ervier": 5613,
      "erkennen": 5614,
      "ertrinken": 5615,
      "erreicht": 5616,
      "ertrinke": 5617,
      "ertrank": 5618,
      "erbrochen": 5619,
      "erstarb": 5620,
      "erjahr": 5621,
      "erholen": 5622,
      "ertragen": 5623,
      "erviert": 5624,
      "erforder": 5625,
      "ertrinkt": 5626,
      "erledige": 5627,
      "ens": 5628,
      "enen": 5629,
      "ened": 5630,
      "entr": 5631,
      "enade": 5632,
      "engt": 5633,
      "enzen": 5634,
      "ence": 5635,
      "endete": 5636,
      "enem": 5637,
      "entrager": 5638,
      "enemy": 5639,
      "ennte": 5640,
      "enervier": 5641,
      "ichtete": 5642,
      "ichel": 5643,
      "into": 5644,
      "inha": 5645,
      "inne": 5646,
      "intr": 5647,
      "insel": 5648,
      "inade": 5649,
      "insur": 5650,
      "inhum": 5651,
      "insec": 5652,
      "incorrect": 5653,
      "incred": 5654,
      "inju": 5655,
      "ton": 5656,
      "tower": 5657,
      "toder": 5658,
      "toap": 5659,
      "towel": 5660,
      "totete": 5661,
      "toller": 5662,
      "topf": 5663,
      "toffel": 5664,
      "todmude": 5665,
      "isung": 5666,
      "isol": 5667,
      "isible": 5668,
      "isfied": 5669,
      "tomaten": 5670,
      "hay": 5671,
      "haie": 5672,
      "hagel": 5673,
      "hauer": 5674,
      "hagelt": 5675,
      "hailing": 5676,
      "ied": 5677,
      "ieft": 5678,
      "iegt": 5679,
      "este": 5680,
      "ested": 5681,
      "esend": 5682,
      "eshed": 5683,
      "estion": 5684,
      "eskrafte": 5685,
      "esome": 5686,
      "ande": 5687,
      "ando": 5688,
      "anwer": 5689,
      "anke": 5690,
      "anten": 5691,
      "anla": 5692,
      "anzt": 5693,
      "anmal": 5694,
      "ance": 5695,
      "anneh": 5696,
      "anate": 5697,
      "ansehen": 5698,
      "anhalten": 5699,
      "anzeigen": 5700,
      "angeschrieben": 5701,
      "anschlieen": 5702,
      "anscheinen": 5703,
      "anstrengen": 5704,
      "asche": 5705,
      "asant": 5706,
      "asta": 5707,
      "assu": 5708,
      "astet": 5709,
      "asser": 5710,
      "astisch": 5711,
      "itll": 5712,
      "itar": 5713,
      "iting": 5714,
      "itet": 5715,
      "itts": 5716,
      "itung": 5717,
      "itze": 5718,
      "itern": 5719,
      "itzo": 5720,
      "itul": 5721,
      "istisch": 5722,
      "heb": 5723,
      "hebe": 5724,
      "heben": 5725,
      "hellte": 5726,
      "heuert": 5727,
      "heuche": 5728,
      "heaven": 5729,
      "hexe": 5730,
      "eing": 5731,
      "einsie": 5732,
      "einung": 5733,
      "einste": 5734,
      "einigt": 5735,
      "einspr": 5736,
      "einlen": 5737,
      "eindruck": 5738,
      "eintritt": 5739,
      "einkaufen": 5740,
      "einladen": 5741,
      "einziehen": 5742,
      "eingelen": 5743,
      "einkaufe": 5744,
      "eintopf": 5745,
      "reig": 5746,
      "relie": 5747,
      "refr": 5748,
      "repe": 5749,
      "reiss": 5750,
      "recom": 5751,
      "reje": 5752,
      "rechte": 5753,
      "reven": 5754,
      "remove": 5755,
      "remind": 5756,
      "redete": 5757,
      "recent": 5758,
      "relig": 5759,
      "refund": 5760,
      "recei": 5761,
      "reci": 5762,
      "reffen": 5763,
      "reply": 5764,
      "refuse": 5765,
      "replace": 5766,
      "repti": 5767,
      "reudig": 5768,
      "gear": 5769,
      "geho": 5770,
      "gelo": 5771,
      "gedich": 5772,
      "gefu": 5773,
      "geil": 5774,
      "gedr": 5775,
      "gemal": 5776,
      "geous": 5777,
      "geko": 5778,
      "gedem": 5779,
      "gefahren": 5780,
      "gefol": 5781,
      "gewissen": 5782,
      "geige": 5783,
      "gewusst": 5784,
      "gezahlt": 5785,
      "geiz": 5786,
      "geandert": 5787,
      "geblin": 5788,
      "geirrt": 5789,
      "gebrochen": 5790,
      "gezogen": 5791,
      "gefressen": 5792,
      "geklappt": 5793,
      "gemerkt": 5794,
      "geoffnet": 5795,
      "gehalts": 5796,
      "geklat": 5797,
      "geglaubt": 5798,
      "gekostet": 5799,
      "geweckt": 5800,
      "gemogelt": 5801,
      "geohrfe": 5802,
      "gegraben": 5803,
      "gefuttert": 5804,
      "geahnt": 5805,
      "geeig": 5806,
      "gefesse": 5807,
      "gegnet": 5808,
      "gemundet": 5809,
      "stau": 5810,
      "sting": 5811,
      "stat": 5812,
      "stam": 5813,
      "stru": 5814,
      "stum": 5815,
      "stuck": 5816,
      "streich": 5817,
      "stammen": 5818,
      "stunde": 5819,
      "stagger": 5820,
      "stared": 5821,
      "bees": 5822,
      "bear": 5823,
      "beits": 5824,
      "bekann": 5825,
      "beten": 5826,
      "bets": 5827,
      "bemit": 5828,
      "bevor": 5829,
      "beug": 5830,
      "belassen": 5831,
      "begluck": 5832,
      "bekommt": 5833,
      "begangen": 5834,
      "befangen": 5835,
      "became": 5836,
      "befehl": 5837,
      "bekenne": 5838,
      "bedur": 5839,
      "beers": 5840,
      "behilf": 5841,
      "belogen": 5842,
      "beans": 5843,
      "becken": 5844,
      "betete": 5845,
      "bezug": 5846,
      "bemu": 5847,
      "belog": 5848,
      "behande": 5849,
      "beende": 5850,
      "befinde": 5851,
      "becher": 5852,
      "behalts": 5853,
      "befindet": 5854,
      "bellt": 5855,
      "below": 5856,
      "beachtet": 5857,
      "bekif": 5858,
      "beyond": 5859,
      "beichtete": 5860,
      "begegnet": 5861,
      "llig": 5862,
      "llank": 5863,
      "iron": 5864,
      "iriert": 5865,
      "irgend": 5866,
      "irrst": 5867,
      "siehe": 5868,
      "siebzehn": 5869,
      "siegten": 5870,
      "onde": 5871,
      "onnen": 5872,
      "onade": 5873,
      "ars": 5874,
      "ary": 5875,
      "arin": 5876,
      "armen": 5877,
      "arche": 5878,
      "arious": 5879,
      "argern": 5880,
      "arrt": 5881,
      "arian": 5882,
      "arfsinnig": 5883,
      "arbeits": 5884,
      "team": 5885,
      "teous": 5886,
      "teuer": 5887,
      "temon": 5888,
      "tected": 5889,
      "teiisch": 5890,
      "teule": 5891,
      "texted": 5892,
      "undo": 5893,
      "unlike": 5894,
      "unnach": 5895,
      "unisch": 5896,
      "ungese": 5897,
      "unpas": 5898,
      "unleid": 5899,
      "unhand": 5900,
      "unmarried": 5901,
      "unnutz": 5902,
      "unruhig": 5903,
      "unfreundlich": 5904,
      "unbesorgt": 5905,
      "unsichert": 5906,
      "unbeha": 5907,
      "unarmed": 5908,
      "untalent": 5909,
      "ungeschehen": 5910,
      "untrost": 5911,
      "unmenschlich": 5912,
      "unbewaffnet": 5913,
      "unzuverlassig": 5914,
      "unistin": 5915,
      "univer": 5916,
      "autor": 5917,
      "augig": 5918,
      "automaten": 5919,
      "meer": 5920,
      "mete": 5921,
      "melo": 5922,
      "meid": 5923,
      "meide": 5924,
      "medi": 5925,
      "metall": 5926,
      "meals": 5927,
      "mecker": 5928,
      "lete": 5929,
      "leger": 5930,
      "lehn": 5931,
      "leak": 5932,
      "lebst": 5933,
      "leckt": 5934,
      "leaned": 5935,
      "legic": 5936,
      "lemons": 5937,
      "leitung": 5938,
      "sea": 5939,
      "sees": 5940,
      "sever": 5941,
      "selt": 5942,
      "sequ": 5943,
      "segel": 5944,
      "seals": 5945,
      "segne": 5946,
      "seufzte": 5947,
      "seeing": 5948,
      "hattest": 5949,
      "imal": 5950,
      "improb": 5951,
      "dassel": 5952,
      "schal": 5953,
      "schuch": 5954,
      "schad": 5955,
      "schone": 5956,
      "schic": 5957,
      "schra": 5958,
      "schwei": 5959,
      "schnur": 5960,
      "schiet": 5961,
      "schrein": 5962,
      "schwed": 5963,
      "schien": 5964,
      "schaltet": 5965,
      "schild": 5966,
      "schrieben": 5967,
      "schinken": 5968,
      "schutte": 5969,
      "schlips": 5970,
      "schande": 5971,
      "scharfsinnig": 5972,
      "oren": 5973,
      "orden": 5974,
      "oranges": 5975,
      "orangen": 5976,
      "orphan": 5977,
      "ichtbar": 5978,
      "wem": 5979,
      "weie": 5980,
      "weck": 5981,
      "wehr": 5982,
      "weht": 5983,
      "weap": 5984,
      "welt": 5985,
      "weight": 5986,
      "weisung": 5987,
      "verno": 5988,
      "verne": 5989,
      "vergeht": 5990,
      "verwit": 5991,
      "verspa": 5992,
      "verander": 5993,
      "verhalten": 5994,
      "verrich": 5995,
      "verspre": 5996,
      "verzwei": 5997,
      "vergab": 5998,
      "verfallen": 5999,
      "verpack": 6000,
      "verklein": 6001,
      "veraltet": 6002,
      "verhasst": 6003,
      "verdien": 6004,
      "verschlief": 6005,
      "vermogen": 6006,
      "verdach": 6007,
      "verehr": 6008,
      "verhande": 6009,
      "versagte": 6010,
      "verspreche": 6011,
      "vergebt": 6012,
      "verschul": 6013,
      "verziehen": 6014,
      "verstort": 6015,
      "verandern": 6016,
      "verwenden": 6017,
      "verdor": 6018,
      "verstie": 6019,
      "verkehr": 6020,
      "verschieden": 6021,
      "versichtlich": 6022,
      "verleugnen": 6023,
      "veranla": 6024,
      "verbeug": 6025,
      "verunsichert": 6026,
      "mack": 6027,
      "making": 6028,
      "match": 6029,
      "magic": 6030,
      "nichtraucher": 6031,
      "edy": 6032,
      "eding": 6033,
      "igten": 6034,
      "igung": 6035,
      "igues": 6036,
      "hop": 6037,
      "hoist": 6038,
      "holi": 6039,
      "hosen": 6040,
      "holle": 6041,
      "nose": 6042,
      "nove": 6043,
      "nosy": 6044,
      "dude": 6045,
      "duhr": 6046,
      "duschte": 6047,
      "duldig": 6048,
      "deer": 6049,
      "deut": 6050,
      "deaf": 6051,
      "deersch": 6052,
      "wirkt": 6053,
      "dost": 6054,
      "doste": 6055,
      "loan": 6056,
      "load": 6057,
      "lots": 6058,
      "lowen": 6059,
      "loffel": 6060,
      "loyal": 6061,
      "neun": 6062,
      "nego": 6063,
      "neben": 6064,
      "neue": 6065,
      "nebel": 6066,
      "necess": 6067,
      "keucht": 6068,
      "urb": 6069,
      "uren": 6070,
      "urlau": 6071,
      "urtst": 6072,
      "atm": 6073,
      "ats": 6074,
      "atis": 6075,
      "ates": 6076,
      "atzt": 6077,
      "ativ": 6078,
      "ation": 6079,
      "atient": 6080,
      "atmete": 6081,
      "bins": 6082,
      "cked": 6083,
      "ckig": 6084,
      "ckgas": 6085,
      "ider": 6086,
      "ided": 6087,
      "ident": 6088,
      "ihunder": 6089,
      "iheraus": 6090,
      "heran": 6091,
      "herbei": 6092,
      "herbst": 6093,
      "herzig": 6094,
      "using": 6095,
      "ussig": 6096,
      "trom": 6097,
      "trach": 6098,
      "trab": 6099,
      "trick": 6100,
      "train": 6101,
      "trapp": 6102,
      "tritten": 6103,
      "trengt": 6104,
      "also": 6105,
      "aliefer": 6106,
      "alarmed": 6107,
      "alified": 6108,
      "feg": 6109,
      "fehle": 6110,
      "feiere": 6111,
      "zufu": 6112,
      "zusehen": 6113,
      "zurecht": 6114,
      "zugewin": 6115,
      "zugetr": 6116,
      "zugele": 6117,
      "zuckte": 6118,
      "zutritt": 6119,
      "zuleide": 6120,
      "zukun": 6121,
      "zugestimmt": 6122,
      "zuversichtlich": 6123,
      "ames": 6124,
      "amant": 6125,
      "ambit": 6126,
      "amused": 6127,
      "ampf": 6128,
      "thday": 6129,
      "thpa": 6130,
      "goof": 6131,
      "gossen": 6132,
      "ierer": 6133,
      "ierst": 6134,
      "inden": 6135,
      "bent": 6136,
      "benimm": 6137,
      "benot": 6138,
      "benommen": 6139,
      "genarrt": 6140,
      "warne": 6141,
      "warest": 6142,
      "aches": 6143,
      "achsel": 6144,
      "denen": 6145,
      "denken": 6146,
      "denkt": 6147,
      "denial": 6148,
      "denied": 6149,
      "illing": 6150,
      "annten": 6151,
      "aufmachen": 6152,
      "aufrecht": 6153,
      "aufgeben": 6154,
      "aufhort": 6155,
      "aufgefallen": 6156,
      "aufgegessen": 6157,
      "aufgegeben": 6158,
      "aufgeschrieben": 6159,
      "aufschlagen": 6160,
      "aufpassen": 6161,
      "aufleger": 6162,
      "thatll": 6163,
      "mirable": 6164,
      "mirror": 6165,
      "area": 6166,
      "arette": 6167,
      "utz": 6168,
      "utes": 6169,
      "utzt": 6170,
      "utigt": 6171,
      "utarm": 6172,
      "uttert": 6173,
      "ays": 6174,
      "liegen": 6175,
      "robe": 6176,
      "rome": 6177,
      "rook": 6178,
      "rots": 6179,
      "rolle": 6180,
      "roller": 6181,
      "roamerikan": 6182,
      "robben": 6183,
      "cop": 6184,
      "coke": 6185,
      "cola": 6186,
      "cooking": 6187,
      "coons": 6188,
      "copy": 6189,
      "lip": 6190,
      "lige": 6191,
      "lipp": 6192,
      "lippe": 6193,
      "uchtig": 6194,
      "soft": 6195,
      "soda": 6196,
      "soccer": 6197,
      "sodbren": 6198,
      "solete": 6199,
      "gesetzt": 6200,
      "gestern": 6201,
      "gesturzt": 6202,
      "gestat": 6203,
      "gespen": 6204,
      "gesorgt": 6205,
      "gespannt": 6206,
      "gesiegt": 6207,
      "gestritten": 6208,
      "kanntest": 6209,
      "spain": 6210,
      "spot": 6211,
      "sprecht": 6212,
      "spure": 6213,
      "spannte": 6214,
      "spende": 6215,
      "spul": 6216,
      "split": 6217,
      "spoons": 6218,
      "spendete": 6219,
      "spuren": 6220,
      "gery": 6221,
      "geruch": 6222,
      "geriet": 6223,
      "geruhr": 6224,
      "gerufen": 6225,
      "gerausch": 6226,
      "gerucht": 6227,
      "lasts": 6228,
      "laster": 6229,
      "lasste": 6230,
      "lasset": 6231,
      "lastig": 6232,
      "senil": 6233,
      "senile": 6234,
      "derly": 6235,
      "derbar": 6236,
      "dermaus": 6237,
      "derjen": 6238,
      "sahen": 6239,
      "sail": 6240,
      "sackgas": 6241,
      "myth": 6242,
      "mytho": 6243,
      "mend": 6244,
      "tenarbeit": 6245,
      "tenac": 6246,
      "rupp": 6247,
      "rupel": 6248,
      "admit": 6249,
      "adieren": 6250,
      "adamant": 6251,
      "admirable": 6252,
      "lack": 6253,
      "lagen": 6254,
      "lager": 6255,
      "ladies": 6256,
      "label": 6257,
      "launisch": 6258,
      "sichs": 6259,
      "upten": 6260,
      "nenkunde": 6261,
      "etwa": 6262,
      "etzen": 6263,
      "etike": 6264,
      "ihrs": 6265,
      "brate": 6266,
      "brac": 6267,
      "brannte": 6268,
      "brachten": 6269,
      "brakes": 6270,
      "brieft": 6271,
      "brannten": 6272,
      "bog": 6273,
      "bow": 6274,
      "box": 6275,
      "bogen": 6276,
      "bohnen": 6277,
      "bother": 6278,
      "tszeit": 6279,
      "tere": 6280,
      "ters": 6281,
      "terner": 6282,
      "terday": 6283,
      "unsers": 6284,
      "unsichtbar": 6285,
      "yoursel": 6286,
      "beside": 6287,
      "bestellt": 6288,
      "wieviel": 6289,
      "ungarin": 6290,
      "ungutes": 6291,
      "ntag": 6292,
      "ntastisch": 6293,
      "getausch": 6294,
      "getreten": 6295,
      "agons": 6296,
      "cheer": 6297,
      "cheers": 6298,
      "zem": 6299,
      "zelt": 6300,
      "zeigt": 6301,
      "zellank": 6302,
      "auslassen": 6303,
      "aussehen": 6304,
      "ausschau": 6305,
      "ausgegangen": 6306,
      "ausrig": 6307,
      "ausgeschieden": 6308,
      "aussicht": 6309,
      "ausgeschlossen": 6310,
      "ausbrechen": 6311,
      "auseinander": 6312,
      "ausland": 6313,
      "aussteigen": 6314,
      "auswarts": 6315,
      "auslander": 6316,
      "ausgesorgt": 6317,
      "ums": 6318,
      "umhoren": 6319,
      "umstanden": 6320,
      "umgeschrieben": 6321,
      "umziehen": 6322,
      "umgehauen": 6323,
      "umgezogen": 6324,
      "umarmen": 6325,
      "himi": 6326,
      "himself": 6327,
      "himmelt": 6328,
      "hieressen": 6329,
      "aband": 6330,
      "abgemacht": 6331,
      "abwarten": 6332,
      "abkurz": 6333,
      "abgele": 6334,
      "abgenommen": 6335,
      "absicht": 6336,
      "abschluss": 6337,
      "abstre": 6338,
      "abroad": 6339,
      "abbie": 6340,
      "friere": 6341,
      "frucht": 6342,
      "frying": 6343,
      "framed": 6344,
      "fritze": 6345,
      "fuen": 6346,
      "fugte": 6347,
      "entfer": 6348,
      "entled": 6349,
      "entkam": 6350,
      "entue": 6351,
      "entzwei": 6352,
      "entsprechen": 6353,
      "entgegen": 6354,
      "entsper": 6355,
      "entschieden": 6356,
      "entledige": 6357,
      "entkleide": 6358,
      "entspannte": 6359,
      "comedi": 6360,
      "comedies": 6361,
      "notes": 6362,
      "notice": 6363,
      "notizen": 6364,
      "notwend": 6365,
      "worn": 6366,
      "woran": 6367,
      "worry": 6368,
      "beruhr": 6369,
      "henpe": 6370,
      "lichte": 6371,
      "whose": 6372,
      "antiso": 6373,
      "meines": 6374,
      "meinten": 6375,
      "meintest": 6376,
      "waisen": 6377,
      "waffeln": 6378,
      "howre": 6379,
      "howled": 6380,
      "habens": 6381,
      "stew": 6382,
      "stete": 6383,
      "steig": 6384,
      "stelle": 6385,
      "steige": 6386,
      "stecke": 6387,
      "steckt": 6388,
      "steufel": 6389,
      "btful": 6390,
      "wohin": 6391,
      "wofur": 6392,
      "wohnt": 6393,
      "wollt": 6394,
      "hassle": 6395,
      "fakt": 6396,
      "facke": 6397,
      "faces": 6398,
      "facts": 6399,
      "faxen": 6400,
      "appt": 6401,
      "aplegic": 6402,
      "fork": 6403,
      "forbid": 6404,
      "tip": 6405,
      "tious": 6406,
      "tiate": 6407,
      "angt": 6408,
      "angle": 6409,
      "angri": 6410,
      "angreifen": 6411,
      "dry": 6412,
      "drein": 6413,
      "drig": 6414,
      "drill": 6415,
      "draus": 6416,
      "dress": 6417,
      "dressed": 6418,
      "dragons": 6419,
      "kommando": 6420,
      "kommunistin": 6421,
      "konsequ": 6422,
      "dawn": 6423,
      "dahinter": 6424,
      "dageblieben": 6425,
      "dazwis": 6426,
      "mitten": 6427,
      "mitkommen": 6428,
      "mittag": 6429,
      "mittwo": 6430,
      "maler": 6431,
      "andauer": 6432,
      "funfund": 6433,
      "funerals": 6434,
      "moon": 6435,
      "mock": 6436,
      "mogt": 6437,
      "moves": 6438,
      "mosk": 6439,
      "moving": 6440,
      "mogeln": 6441,
      "mother": 6442,
      "mochtet": 6443,
      "moody": 6444,
      "moscow": 6445,
      "modeersch": 6446,
      "gutes": 6447,
      "gutaussehen": 6448,
      "needy": 6449,
      "letter": 6450,
      "letic": 6451,
      "lethar": 6452,
      "lywed": 6453,
      "stor": 6454,
      "story": 6455,
      "stozeit": 6456,
      "stolen": 6457,
      "stohnte": 6458,
      "stolper": 6459,
      "stories": 6460,
      "stottert": 6461,
      "ofreudig": 6462,
      "whatll": 6463,
      "whatve": 6464,
      "lovely": 6465,
      "dirtcheap": 6466,
      "focus": 6467,
      "fotoap": 6468,
      "foreig": 6469,
      "nachsehen": 6470,
      "nachsichtig": 6471,
      "nachgegeben": 6472,
      "nachtisch": 6473,
      "nachschlagen": 6474,
      "nachteule": 6475,
      "nachdenken": 6476,
      "tage": 6477,
      "takes": 6478,
      "chengehen": 6479,
      "undant": 6480,
      "unddreiig": 6481,
      "seemed": 6482,
      "seelen": 6483,
      "blew": 6484,
      "bleich": 6485,
      "bleeding": 6486,
      "horst": 6487,
      "horig": 6488,
      "horten": 6489,
      "immst": 6490,
      "immbecken": 6491,
      "icky": 6492,
      "marke": 6493,
      "marry": 6494,
      "outdoor": 6495,
      "outgoing": 6496,
      "outlaw": 6497,
      "ischer": 6498,
      "bitten": 6499,
      "reibe": 6500,
      "reift": 6501,
      "reizt": 6502,
      "reiend": 6503,
      "kenterte": 6504,
      "suchte": 6505,
      "brauchte": 6506,
      "fere": 6507,
      "fertigt": 6508,
      "wirds": 6509,
      "vorgemacht": 6510,
      "vortritt": 6511,
      "vorschri": 6512,
      "vornamen": 6513,
      "vorzeitig": 6514,
      "vorausschau": 6515,
      "wins": 6516,
      "winner": 6517,
      "winked": 6518,
      "homework": 6519,
      "homeless": 6520,
      "suen": 6521,
      "sued": 6522,
      "sugar": 6523,
      "suffer": 6524,
      "suffic": 6525,
      "alkohol": 6526,
      "acki": 6527,
      "opier": 6528,
      "selte": 6529,
      "selig": 6530,
      "selsucht": 6531,
      "hasts": 6532,
      "loslegen": 6533,
      "ugged": 6534,
      "redung": 6535,
      "redundant": 6536,
      "gange": 6537,
      "pleased": 6538,
      "turm": 6539,
      "turtles": 6540,
      "lest": 6541,
      "lautet": 6542,
      "schwimmer": 6543,
      "schwammen": 6544,
      "schwanzt": 6545,
      "schwimmbecken": 6546,
      "geschwitzt": 6547,
      "geschutte": 6548,
      "geschmack": 6549,
      "protest": 6550,
      "protes": 6551,
      "prosper": 6552,
      "protected": 6553,
      "rieb": 6554,
      "riemen": 6555,
      "riefen": 6556,
      "rieche": 6557,
      "riechen": 6558,
      "riesig": 6559,
      "traue": 6560,
      "trauen": 6561,
      "nerven": 6562,
      "halb": 6563,
      "halbier": 6564,
      "niest": 6565,
      "niesen": 6566,
      "nieste": 6567,
      "niedrig": 6568,
      "sings": 6569,
      "singst": 6570,
      "zah": 6571,
      "hint": 6572,
      "hinten": 6573,
      "hinaus": 6574,
      "hinuber": 6575,
      "hinunter": 6576,
      "hinkt": 6577,
      "hingefallen": 6578,
      "hinsetzen": 6579,
      "hintritt": 6580,
      "hinreiend": 6581,
      "que": 6582,
      "quate": 6583,
      "queasy": 6584,
      "quere": 6585,
      "quarre": 6586,
      "querschn": 6587,
      "question": 6588,
      "qualified": 6589,
      "staring": 6590,
      "starben": 6591,
      "starren": 6592,
      "starrte": 6593,
      "starrkopfig": 6594,
      "alteste": 6595,
      "carrots": 6596,
      "furs": 6597,
      "furchter": 6598,
      "furchtet": 6599,
      "uberfall": 6600,
      "uberlasst": 6601,
      "ubergangen": 6602,
      "uberfl": 6603,
      "uberarbeitet": 6604,
      "ubernehme": 6605,
      "uberlasse": 6606,
      "ubernehmt": 6607,
      "uberlegen": 6608,
      "ubertrei": 6609,
      "uberquere": 6610,
      "wurgen": 6611,
      "wurfle": 6612,
      "witch": 6613,
      "tool": 6614,
      "tools": 6615,
      "beschwer": 6616,
      "beschwert": 6617,
      "beschutzt": 6618,
      "beschreibe": 6619,
      "ratet": 6620,
      "raised": 6621,
      "keinster": 6622,
      "freier": 6623,
      "freute": 6624,
      "freak": 6625,
      "freiheraus": 6626,
      "keeps": 6627,
      "ceful": 6628,
      "daraus": 6629,
      "fasan": 6630,
      "peace": 6631,
      "peek": 6632,
      "platten": 6633,
      "plumber": 6634,
      "pladieren": 6635,
      "newlywed": 6636,
      "backer": 6637,
      "backward": 6638,
      "versuche": 6639,
      "fachleute": 6640,
      "schuh": 6641,
      "werdens": 6642,
      "beschaftige": 6643,
      "courage": 6644,
      "calls": 6645,
      "grober": 6646,
      "grown": 6647,
      "groaned": 6648,
      "grotes": 6649,
      "naie": 6650,
      "nahm": 6651,
      "inkorrekt": 6652,
      "schoner": 6653,
      "schones": 6654,
      "schonheit": 6655,
      "geselle": 6656,
      "gesellen": 6657,
      "diffic": 6658,
      "wurdet": 6659,
      "excon": 6660,
      "exkn": 6661,
      "verlierer": 6662,
      "fahrst": 6663,
      "hypo": 6664,
      "mania": 6665,
      "manage": 6666,
      "esting": 6667,
      "angefangen": 6668,
      "angefahren": 6669,
      "angeheuert": 6670,
      "angefertigt": 6671,
      "weggehen": 6672,
      "weggegangen": 6673,
      "weggelaufen": 6674,
      "helfende": 6675,
      "bleibe": 6676,
      "bleibst": 6677,
      "akt": 6678,
      "aktiv": 6679,
      "eaten": 6680,
      "founded": 6681,
      "langt": 6682,
      "languages": 6683,
      "sert": 6684,
      "serve": 6685,
      "serkrank": 6686,
      "sicherung": 6687,
      "blonde": 6688,
      "blames": 6689,
      "blutarm": 6690,
      "kochte": 6691,
      "kochin": 6692,
      "kohld": 6693,
      "kostete": 6694,
      "schlagt": 6695,
      "schlafan": 6696,
      "feeling": 6697,
      "gluckste": 6698,
      "glucksspiel": 6699,
      "tune": 6700,
      "wrist": 6701,
      "wrap": 6702,
      "geheult": 6703,
      "maybe": 6704,
      "schneite": 6705,
      "schneiden": 6706,
      "offiz": 6707,
      "afroamerikan": 6708,
      "gras": 6709,
      "gray": 6710,
      "grad": 6711,
      "grauen": 6712,
      "grass": 6713,
      "grunde": 6714,
      "grenade": 6715,
      "granate": 6716,
      "gratis": 6717,
      "stuhl": 6718,
      "stuff": 6719,
      "studied": 6720,
      "hunt": 6721,
      "hunch": 6722,
      "hunting": 6723,
      "begreifen": 6724,
      "begreif": 6725,
      "begonnen": 6726,
      "begreift": 6727,
      "betreffen": 6728,
      "marys": 6729,
      "kamm": 6730,
      "buchstab": 6731,
      "pose": 6732,
      "poet": 6733,
      "pool": 6734,
      "posit": 6735,
      "poison": 6736,
      "poem": 6737,
      "pointed": 6738,
      "potz": 6739,
      "voices": 6740,
      "booked": 6741,
      "rip": 6742,
      "riva": 6743,
      "rival": 6744,
      "unterlassen": 6745,
      "unterhalte": 6746,
      "unterlasse": 6747,
      "unterbrochen": 6748,
      "unterschreib": 6749,
      "untertasse": 6750,
      "unterschrieben": 6751,
      "zuruckhaben": 6752,
      "zuruckhalten": 6753,
      "zuruckgetan": 6754,
      "zuruckkehr": 6755,
      "zuruckweisung": 6756,
      "deinetwegen": 6757,
      "perate": 6758,
      "percep": 6759,
      "perucke": 6760,
      "persever": 6761,
      "spaig": 6762,
      "hungarian": 6763,
      "otten": 6764,
      "pragt": 6765,
      "prices": 6766,
      "erned": 6767,
      "ruckende": 6768,
      "ruckwarts": 6769,
      "against": 6770,
      "krone": 6771,
      "kratzt": 6772,
      "gefallst": 6773,
      "betrink": 6774,
      "betruge": 6775,
      "betrinken": 6776,
      "betrublich": 6777,
      "netten": 6778,
      "netter": 6779,
      "kindisch": 6780,
      "swiss": 6781,
      "swissen": 6782,
      "swild": 6783,
      "tortured": 6784,
      "vertraust": 6785,
      "nichtsnutze": 6786,
      "achtung": 6787,
      "wiederhaben": 6788,
      "confess": 6789,
      "comb": 6790,
      "command": 6791,
      "commun": 6792,
      "hisst": 6793,
      "hisste": 6794,
      "hilarious": 6795,
      "keinem": 6796,
      "sprit": 6797,
      "openmind": 6798,
      "deiner": 6799,
      "anderes": 6800,
      "hoffen": 6801,
      "diesmal": 6802,
      "diesbezug": 6803,
      "mannschaft": 6804,
      "nimms": 6805,
      "passte": 6806,
      "itely": 6807,
      "schaue": 6808,
      "schaust": 6809,
      "schauspieler": 6810,
      "laufer": 6811,
      "lauferin": 6812,
      "sitat": 6813,
      "sitze": 6814,
      "shock": 6815,
      "armlich": 6816,
      "armban": 6817,
      "leider": 6818,
      "dummen": 6819,
      "startled": 6820,
      "overworked": 6821,
      "overweight": 6822,
      "surfer": 6823,
      "surgery": 6824,
      "hearsay": 6825,
      "neuer": 6826,
      "neuigkeiten": 6827,
      "achelt": 6828,
      "tuts": 6829,
      "handed": 6830,
      "handsome": 6831,
      "handsche": 6832,
      "handige": 6833,
      "handgelen": 6834,
      "handtuch": 6835,
      "geldautomaten": 6836,
      "sterblich": 6837,
      "sternenkunde": 6838,
      "ungemein": 6839,
      "ungeduldig": 6840,
      "madels": 6841,
      "selfish": 6842,
      "rights": 6843,
      "schlummer": 6844,
      "schlimme": 6845,
      "schlitzo": 6846,
      "followed": 6847,
      "gluckliches": 6848,
      "guest": 6849,
      "gucke": 6850,
      "guitar": 6851,
      "ptiere": 6852,
      "runzelte": 6853,
      "auchpin": 6854,
      "plans": 6855,
      "parat": 6856,
      "parteiisch": 6857,
      "paraplegic": 6858,
      "sammle": 6859,
      "ruhst": 6860,
      "ernstes": 6861,
      "drehe": 6862,
      "dreckig": 6863,
      "dreihunder": 6864,
      "dings": 6865,
      "dingt": 6866,
      "hire": 6867,
      "hives": 6868,
      "japste": 6869,
      "schliet": 6870,
      "madman": 6871,
      "holisch": 6872,
      "earned": 6873,
      "earlier": 6874,
      "gling": 6875,
      "glatz": 6876,
      "kleinen": 6877,
      "klutz": 6878,
      "kusse": 6879,
      "putzt": 6880,
      "putzen": 6881,
      "sweat": 6882,
      "sweep": 6883,
      "sweating": 6884,
      "swedish": 6885,
      "gelachelt": 6886,
      "beginne": 6887,
      "swims": 6888,
      "enjoying": 6889,
      "enjoyed": 6890,
      "flew": 6891,
      "fleiig": 6892,
      "fledermaus": 6893,
      "kaufte": 6894,
      "misfit": 6895,
      "mislead": 6896,
      "miserable": 6897,
      "taschen": 6898,
      "tastes": 6899,
      "taschent": 6900,
      "yesman": 6901,
      "yesterday": 6902,
      "esehen": 6903,
      "rettet": 6904,
      "rettungs": 6905,
      "gewinner": 6906,
      "lefthanded": 6907,
      "sags": 6908,
      "sagst": 6909,
      "bestand": 6910,
      "bestanden": 6911,
      "bestimmst": 6912,
      "fuhlen": 6913,
      "breit": 6914,
      "breath": 6915,
      "breathe": 6916,
      "cation": 6917,
      "cattle": 6918,
      "catholi": 6919,
      "iker": 6920,
      "ikofreudig": 6921,
      "sickens": 6922,
      "gebuhr": 6923,
      "gebaut": 6924,
      "geboren": 6925,
      "geburtst": 6926,
      "gebauchpin": 6927,
      "fehlte": 6928,
      "fehlsichtig": 6929,
      "lifeguard": 6930,
      "agrees": 6931,
      "wahrhaben": 6932,
      "plays": 6933,
      "bikes": 6934,
      "bizarre": 6935,
      "bienen": 6936,
      "moron": 6937,
      "morning": 6938,
      "mords": 6939,
      "pantoffel": 6940,
      "eintreten": 6941,
      "melig": 6942,
      "melden": 6943,
      "weilchen": 6944,
      "troste": 6945,
      "trocken": 6946,
      "quietly": 6947,
      "quietschen": 6948,
      "bark": 6949,
      "bares": 6950,
      "bargeld": 6951,
      "barras": 6952,
      "bargain": 6953,
      "ktiert": 6954,
      "oldest": 6955,
      "pays": 6956,
      "schei": 6957,
      "scheidung": 6958,
      "scheitern": 6959,
      "verstehen": 6960,
      "spielst": 6961,
      "spielchen": 6962,
      "setzungs": 6963,
      "langweilst": 6964,
      "langweilte": 6965,
      "bub": 6966,
      "buk": 6967,
      "bucke": 6968,
      "bores": 6969,
      "eilt": 6970,
      "eilig": 6971,
      "glaubst": 6972,
      "glaubte": 6973,
      "katholisch": 6974,
      "skate": 6975,
      "sincer": 6976,
      "anyone": 6977,
      "thinking": 6978,
      "cooked": 6979,
      "speist": 6980,
      "spell": 6981,
      "speech": 6982,
      "appreci": 6983,
      "actor": 6984,
      "accur": 6985,
      "active": 6986,
      "bigot": 6987,
      "reinigen": 6988,
      "reinige": 6989,
      "sonst": 6990,
      "sonne": 6991,
      "sonderbar": 6992,
      "sonntag": 6993,
      "sorge": 6994,
      "tvs": 6995,
      "tvsuchtig": 6996,
      "uhren": 6997,
      "wild": 6998,
      "widow": 6999,
      "wizard": 7000,
      "wachter": 7001,
      "wachmann": 7002,
      "wachsam": 7003,
      "gedauer": 7004,
      "gebrannt": 7005,
      "bedankte": 7006,
      "freundinnen": 7007,
      "tanzte": 7008,
      "tanzten": 7009,
      "wunde": 7010,
      "hottie": 7011,
      "hinters": 7012,
      "hinterlassen": 7013,
      "hinterging": 7014,
      "hinterlasse": 7015,
      "freeze": 7016,
      "dummkop": 7017,
      "finster": 7018,
      "finicky": 7019,
      "obacht": 7020,
      "obdach": 7021,
      "obsolete": 7022,
      "pajam": 7023,
      "pazif": 7024,
      "richte": 7025,
      "vieh": 7026,
      "wenige": 7027,
      "weniger": 7028,
      "wissenschaft": 7029,
      "quitter": 7030,
      "quitting": 7031,
      "dislike": 7032,
      "dislikes": 7033,
      "dismissed": 7034,
      "disappe": 7035,
      "flennte": 7036,
      "jungs": 7037,
      "junggeselle": 7038,
      "kurzsichtig": 7039,
      "resting": 7040,
      "saukomisch": 7041,
      "shouts": 7042,
      "shouted": 7043,
      "taller": 7044,
      "tallest": 7045,
      "heien": 7046,
      "heilige": 7047,
      "strom": 7048,
      "stritt": 7049,
      "strickt": 7050,
      "schiee": 7051,
      "schiech": 7052,
      "schiefgelaufen": 7053,
      "zeigte": 7054,
      "zeigts": 7055,
      "fuller": 7056,
      "bereits": 7057,
      "bereue": 7058,
      "bereite": 7059,
      "offended": 7060,
      "offensichtlich": 7061,
      "wusstet": 7062,
      "abenteuer": 7063,
      "bluhen": 7064,
      "blutet": 7065,
      "blutete": 7066,
      "shaken": 7067,
      "shaking": 7068,
      "interrupt": 7069,
      "interested": 7070,
      "interfere": 7071,
      "interesting": 7072,
      "teaches": 7073,
      "medic": 7074,
      "meddling": 7075,
      "schreie": 7076,
      "locker": 7077,
      "drinks": 7078,
      "everybodys": 7079,
      "listening": 7080,
      "drogen": 7081,
      "eifrig": 7082,
      "moms": 7083,
      "mommy": 7084,
      "rasch": 7085,
      "rasieren": 7086,
      "rasiert": 7087,
      "rasierte": 7088,
      "heimgehen": 7089,
      "heimgekommen": 7090,
      "getranke": 7091,
      "schock": 7092,
      "sagenhaft": 7093,
      "nervst": 7094,
      "witzelt": 7095,
      "erinnert": 7096,
      "erinnerst": 7097,
      "sinned": 7098,
      "balls": 7099,
      "descri": 7100,
      "dessert": 7101,
      "desperate": 7102,
      "frohes": 7103,
      "frosche": 7104,
      "frogs": 7105,
      "klapp": 7106,
      "lenient": 7107,
      "reserviert": 7108,
      "superb": 7109,
      "suppor": 7110,
      "support": 7111,
      "supply": 7112,
      "suppose": 7113,
      "touching": 7114,
      "beerdig": 7115,
      "bewegt": 7116,
      "legs": 7117,
      "legte": 7118,
      "welpen": 7119,
      "verschwanden": 7120,
      "verschwinden": 7121,
      "deadtired": 7122,
      "trifft": 7123,
      "rotwein": 7124,
      "fuhren": 7125,
      "fuhrte": 7126,
      "fuhrend": 7127,
      "hundewelpen": 7128,
      "bereiten": 7129,
      "remembers": 7130,
      "captured": 7131,
      "capsiz": 7132,
      "gabel": 7133,
      "gahnen": 7134,
      "gahnt": 7135,
      "gahnte": 7136,
      "gawking": 7137,
      "gartenarbeit": 7138,
      "ioser": 7139,
      "karten": 7140,
      "karotten": 7141,
      "kapier": 7142,
      "kapitul": 7143,
      "mpner": 7144,
      "norgler": 7145,
      "risky": 7146,
      "risks": 7147,
      "risikofreudig": 7148,
      "rats": 7149,
      "rather": 7150,
      "ratten": 7151,
      "ratted": 7152,
      "ratsel": 7153,
      "ratul": 7154,
      "tiefes": 7155,
      "tree": 7156,
      "trete": 7157,
      "tretet": 7158,
      "treffe": 7159,
      "treppe": 7160,
      "taten": 7161,
      "tatverdach": 7162,
      "wande": 7163,
      "rechner": 7164,
      "rechnungen": 7165,
      "genauso": 7166,
      "liebte": 7167,
      "witzig": 7168,
      "excused": 7169,
      "exciting": 7170,
      "leidenswert": 7171,
      "skip": 7172,
      "skifahren": 7173,
      "caused": 7174,
      "caucas": 7175,
      "cautious": 7176,
      "damp": 7177,
      "daddy": 7178,
      "dreiviertel": 7179,
      "fruhzeitig": 7180,
      "mutig": 7181,
      "mutti": 7182,
      "summe": 7183,
      "weinst": 7184,
      "zimmermann": 7185,
      "headache": 7186,
      "regiert": 7187,
      "regret": 7188,
      "gewalt": 7189,
      "metal": 7190,
      "schlecken": 7191,
      "schlechter": 7192,
      "wednes": 7193,
      "weddings": 7194,
      "selbstsuchtig": 7195,
      "selbstgespr": 7196,
      "hoffnungen": 7197,
      "object": 7198,
      "abends": 7199,
      "kopfweh": 7200,
      "burn": 7201,
      "burp": 7202,
      "content": 7203,
      "knits": 7204,
      "knife": 7205,
      "knausrig": 7206,
      "minderjahr": 7207,
      "obedient": 7208,
      "pferde": 7209,
      "sighed": 7210,
      "sighted": 7211,
      "slob": 7212,
      "slowed": 7213,
      "satz": 7214,
      "satisfied": 7215,
      "seinem": 7216,
      "erstickt": 7217,
      "erstaun": 7218,
      "erstaunt": 7219,
      "believes": 7220,
      "arztin": 7221,
      "impfen": 7222,
      "impatient": 7223,
      "detektiv": 7224,
      "detective": 7225,
      "wirkst": 7226,
      "umarmten": 7227,
      "umarmung": 7228,
      "frenchman": 7229,
      "antwort": 7230,
      "antworte": 7231,
      "wohnst": 7232,
      "joints": 7233,
      "typisch": 7234,
      "typical": 7235,
      "sprachen": 7236,
      "sprachlos": 7237,
      "morgengrauen": 7238,
      "kaputtgegangen": 7239,
      "hoffnungslos": 7240,
      "hoffnungsloser": 7241,
      "cds": 7242,
      "gaste": 7243,
      "kummert": 7244,
      "kummerts": 7245,
      "owes": 7246,
      "ohrfeig": 7247,
      "owns": 7248,
      "phd": 7249,
      "packt": 7250,
      "packing": 7251,
      "zigarette": 7252,
      "realistic": 7253,
      "realistisch": 7254,
      "arabs": 7255,
      "araber": 7256,
      "schnitt": 7257,
      "schnuffeln": 7258,
      "schnarche": 7259,
      "schmeckte": 7260,
      "schmeichel": 7261,
      "hochschule": 7262,
      "hochzeiten": 7263,
      "gehorsam": 7264,
      "liars": 7265,
      "gestand": 7266,
      "gesteinigt": 7267,
      "spiegel": 7268,
      "beschei": 7269,
      "france": 7270,
      "wahlen": 7271,
      "wahlte": 7272,
      "wahlerisch": 7273,
      "suchtiger": 7274,
      "happens": 7275,
      "kleiner": 7276,
      "lugnerin": 7277,
      "studentin": 7278,
      "fernsehsuchtig": 7279,
      "answers": 7280,
      "schlechtes": 7281,
      "optimists": 7282,
      "optimisten": 7283,
      "optimistin": 7284,
      "optimistisch": 7285,
      "drucken": 7286,
      "druckst": 7287,
      "druckkno": 7288,
      "ellbogen": 7289,
      "eurem": 7290,
      "fielen": 7291,
      "grabe": 7292,
      "grame": 7293,
      "grateful": 7294,
      "graceful": 7295,
      "huhn": 7296,
      "hufte": 7297,
      "hulf": 7298,
      "preise": 7299,
      "rausgehen": 7300,
      "rauskommst": 7301,
      "escape": 7302,
      "gebeten": 7303,
      "gelegen": 7304,
      "irrefuhrend": 7305,
      "heroic": 7306,
      "thirtyfour": 7307,
      "spanien": 7308,
      "unserer": 7309,
      "unseres": 7310,
      "entspannten": 7311,
      "hassten": 7312,
      "kontrollierts": 7313,
      "fools": 7314,
      "diene": 7315,
      "fleischhauer": 7316,
      "awful": 7317,
      "awkward": 7318,
      "awesome": 7319,
      "caviar": 7320,
      "catching": 7321,
      "druben": 7322,
      "drucke": 7323,
      "drugs": 7324,
      "fiebrig": 7325,
      "falsche": 7326,
      "minor": 7327,
      "ohnmacht": 7328,
      "paint": 7329,
      "painter": 7330,
      "painted": 7331,
      "painless": 7332,
      "shortcut": 7333,
      "tauschst": 7334,
      "vierunddreiig": 7335,
      "choice": 7336,
      "anemic": 7337,
      "angestrengt": 7338,
      "eingefangen": 7339,
      "eingezogen": 7340,
      "eingeatmet": 7341,
      "stinkt": 7342,
      "stinkst": 7343,
      "stinkig": 7344,
      "stinkreich": 7345,
      "legend": 7346,
      "legende": 7347,
      "schwarmt": 7348,
      "decided": 7349,
      "logical": 7350,
      "usually": 7351,
      "truly": 7352,
      "uchtigt": 7353,
      "gesundigt": 7354,
      "komischer": 7355,
      "zeugs": 7356,
      "davongekommen": 7357,
      "musiker": 7358,
      "musikerin": 7359,
      "kenntnis": 7360,
      "everythings": 7361,
      "experts": 7362,
      "kampieren": 7363,
      "kampfte": 7364,
      "flexibel": 7365,
      "durchfallen": 7366,
      "durchsetzungs": 7367,
      "durchgebrannt": 7368,
      "beruhigt": 7369,
      "pferdchen": 7370,
      "annoyed": 7371,
      "improvise": 7372,
      "blicke": 7373,
      "cycle": 7374,
      "dicke": 7375,
      "fischt": 7376,
      "fischen": 7377,
      "film": 7378,
      "filmen": 7379,
      "filming": 7380,
      "filthy": 7381,
      "grew": 7382,
      "grey": 7383,
      "greedy": 7384,
      "grub": 7385,
      "gruselig": 7386,
      "huste": 7387,
      "husten": 7388,
      "hustet": 7389,
      "kuli": 7390,
      "kuhl": 7391,
      "muhe": 7392,
      "muhsam": 7393,
      "messer": 7394,
      "tischler": 7395,
      "erscheinen": 7396,
      "erschuttert": 7397,
      "assist": 7398,
      "assierte": 7399,
      "assisten": 7400,
      "reichts": 7401,
      "gegend": 7402,
      "stirn": 7403,
      "stirbst": 7404,
      "schickt": 7405,
      "schaffte": 7406,
      "verpetz": 7407,
      "verpetzen": 7408,
      "verspate": 7409,
      "verabredung": 7410,
      "verdientes": 7411,
      "ignored": 7412,
      "logisch": 7413,
      "nearby": 7414,
      "nearsighted": 7415,
      "attend": 7416,
      "benehmen": 7417,
      "aufgezogen": 7418,
      "aufgeweckt": 7419,
      "aufgegossen": 7420,
      "aufgekratzt": 7421,
      "gesetzlich": 7422,
      "gesetzloser": 7423,
      "besitzen": 7424,
      "zeichnen": 7425,
      "entschuldigt": 7426,
      "wortspiel": 7427,
      "operiert": 7428,
      "laughs": 7429,
      "geschaftszeit": 7430,
      "divorce": 7431,
      "harmlos": 7432,
      "harmless": 7433,
      "exhaled": 7434,
      "grundlich": 7435,
      "springen": 7436,
      "hoflicher": 7437,
      "folgte": 7438,
      "fliegende": 7439,
      "trips": 7440,
      "franzosischunterricht": 7441,
      "gleiche": 7442,
      "zusammenbleiben": 7443,
      "bloom": 7444,
      "blown": 7445,
      "bills": 7446,
      "billigt": 7447,
      "else": 7448,
      "elderly": 7449,
      "elbow": 7450,
      "evident": 7451,
      "eventue": 7452,
      "ehrgeiz": 7453,
      "future": 7454,
      "futile": 7455,
      "futterte": 7456,
      "futtere": 7457,
      "guckst": 7458,
      "ifist": 7459,
      "iffen": 7460,
      "kissing": 7461,
      "mistakes": 7462,
      "patsch": 7463,
      "patsche": 7464,
      "runtergehauen": 7465,
      "soups": 7466,
      "southpa": 7467,
      "snore": 7468,
      "tape": 7469,
      "widern": 7470,
      "widerst": 7471,
      "widened": 7472,
      "erklart": 7473,
      "invisible": 7474,
      "hamisch": 7475,
      "anwalte": 7476,
      "anwesend": 7477,
      "rewrote": 7478,
      "stutters": 7479,
      "streng": 7480,
      "artist": 7481,
      "artistic": 7482,
      "meats": 7483,
      "benutze": 7484,
      "genial": 7485,
      "gestochen": 7486,
      "gestolper": 7487,
      "briefmarke": 7488,
      "dazusetzen": 7489,
      "football": 7490,
      "nachtmensch": 7491,
      "geschnarcht": 7492,
      "geschnappt": 7493,
      "keinerlei": 7494,
      "courteous": 7495,
      "kostlich": 7496,
      "schneidet": 7497,
      "schreibs": 7498,
      "handelt": 7499,
      "handelvertreter": 7500,
      "fixed": 7501,
      "deserve": 7502,
      "terrifying": 7503,
      "dinners": 7504,
      "schwindelig": 7505,
      "verbindungsstudent": 7506,
      "banane": 7507,
      "blauaugig": 7508,
      "cuff": 7509,
      "embarras": 7510,
      "eiscreme": 7511,
      "eigener": 7512,
      "evening": 7513,
      "empfangt": 7514,
      "empfehle": 7515,
      "fesselte": 7516,
      "jumped": 7517,
      "kaum": 7518,
      "kauz": 7519,
      "krahen": 7520,
      "maul": 7521,
      "mause": 7522,
      "maulte": 7523,
      "montage": 7524,
      "pfsinnig": 7525,
      "pflichte": 7526,
      "paused": 7527,
      "puppy": 7528,
      "pragen": 7529,
      "praktik": 7530,
      "sneeze": 7531,
      "sneezed": 7532,
      "screams": 7533,
      "whens": 7534,
      "childish": 7535,
      "children": 7536,
      "tollpatsch": 7537,
      "heult": 7538,
      "heulen": 7539,
      "heuschnupfen": 7540,
      "einzukaufen": 7541,
      "einzudosen": 7542,
      "geisteskrafte": 7543,
      "streu": 7544,
      "streit": 7545,
      "street": 7546,
      "strebsam": 7547,
      "sternhagel": 7548,
      "bezahlst": 7549,
      "bezahlten": 7550,
      "bezahlung": 7551,
      "bewundern": 7552,
      "bewunderte": 7553,
      "bewunderns": 7554,
      "scheints": 7555,
      "athiopier": 7556,
      "trinkgeld": 7557,
      "rubbed": 7558,
      "rubbish": 7559,
      "brace": 7560,
      "brilliant": 7561,
      "brillentrager": 7562,
      "bestens": 7563,
      "traumst": 7564,
      "naherte": 7565,
      "merkten": 7566,
      "afternoon": 7567,
      "grimassierte": 7568,
      "studiert": 7569,
      "studierst": 7570,
      "unterstutze": 7571,
      "unterstutzt": 7572,
      "unterstutzen": 7573,
      "unterstutzte": 7574,
      "unterstutzung": 7575,
      "prisoners": 7576,
      "sitzenlassen": 7577,
      "sympath": 7578,
      "englanderin": 7579,
      "eiferer": 7580,
      "normalerweise": 7581,
      "riskant": 7582,
      "riskieren": 7583,
      "rechtsanwalte": 7584,
      "amerikanerin": 7585,
      "whistled": 7586,
      "lawyers": 7587,
      "babe": 7588,
      "bake": 7589,
      "doubtful": 7590,
      "dankbar": 7591,
      "fuchsteufel": 7592,
      "ggled": 7593,
      "giggling": 7594,
      "gamble": 7595,
      "gambler": 7596,
      "honig": 7597,
      "kichert": 7598,
      "kirschen": 7599,
      "kioto": 7600,
      "limonade": 7601,
      "nature": 7602,
      "pinched": 7603,
      "pickup": 7604,
      "picknick": 7605,
      "roman": 7606,
      "rauchst": 7607,
      "rauchte": 7608,
      "snap": 7609,
      "sniff": 7610,
      "slacker": 7611,
      "ular": 7612,
      "woman": 7613,
      "zerbrochen": 7614,
      "zerbrach": 7615,
      "zerstort": 7616,
      "erbaut": 7617,
      "erblasste": 7618,
      "erbarmlich": 7619,
      "ertuchtig": 7620,
      "ertuchtigt": 7621,
      "erschoss": 7622,
      "erwischt": 7623,
      "animal": 7624,
      "hellwach": 7625,
      "reparierte": 7626,
      "sturkopf": 7627,
      "behaupten": 7628,
      "bewegte": 7629,
      "bewegung": 7630,
      "beleidigt": 7631,
      "beleidigen": 7632,
      "beleidige": 7633,
      "beleidigung": 7634,
      "autist": 7635,
      "autistic": 7636,
      "schummelt": 7637,
      "schrieb": 7638,
      "ignoriere": 7639,
      "ignorierte": 7640,
      "herrlich": 7641,
      "herrschte": 7642,
      "feverish": 7643,
      "feiertage": 7644,
      "amusiert": 7645,
      "amusiere": 7646,
      "genervt": 7647,
      "rollschuh": 7648,
      "lastwagen": 7649,
      "admired": 7650,
      "bestelle": 7651,
      "bestellen": 7652,
      "bestellte": 7653,
      "bestellung": 7654,
      "ausgelesen": 7655,
      "ausgefli": 7656,
      "entscheide": 7657,
      "entscheidung": 7658,
      "waffles": 7659,
      "approves": 7660,
      "approached": 7661,
      "funfzig": 7662,
      "funfzehn": 7663,
      "jogging": 7664,
      "turkin": 7665,
      "turkisch": 7666,
      "schwitzt": 7667,
      "schwitzen": 7668,
      "schwitzte": 7669,
      "schwitzten": 7670,
      "uberrascht": 7671,
      "schulerin": 7672,
      "exists": 7673,
      "existieren": 7674,
      "existiert": 7675,
      "exaggerates": 7676,
      "grinsen": 7677,
      "grinste": 7678,
      "grinning": 7679,
      "grinned": 7680,
      "powers": 7681,
      "powerful": 7682,
      "unterrichtet": 7683,
      "krankenpfle": 7684,
      "betrugst": 7685,
      "jazzmusik": 7686,
      "consider": 7687,
      "dumbfounded": 7688,
      "surprised": 7689,
      "drehte": 7690,
      "studentenverbindung": 7691,
      "zweifelhaft": 7692,
      "risiken": 7693,
      "polizisten": 7694,
      "hubsche": 7695,
      "spanischlehrer": 7696,
      "spanischlehrerin": 7697,
      "spanischunterricht": 7698,
      "puzzled": 7699,
      "decision": 7700,
      "diabetes": 7701,
      "diabetikerin": 7702,
      "improvisieren": 7703,
      "improvisierte": 7704,
      "blickten": 7705,
      "verabscheut": 7706,
      "verabscheute": 7707,
      "ehrlichkeit": 7708,
      "hammertyp": 7709,
      "sympathized": 7710,
      "fantastisch": 7711,
      "zauberer": 7712,
      "zauberhaft": 7713,
      "telefoniert": 7714,
      "telefonierte": 7715,
      "mahjongg": 7716,
      "canadians": 7717,
      "professorin": 7718,
      "babies": 7719,
      "bissiger": 7720,
      "bauchgefuhl": 7721,
      "cial": 7722,
      "ciable": 7723,
      "camion": 7724,
      "crook": 7725,
      "crown": 7726,
      "cross": 7727,
      "federn": 7728,
      "floats": 7729,
      "gonne": 7730,
      "gonnen": 7731,
      "gonnt": 7732,
      "hirsch": 7733,
      "mums": 7734,
      "null": 7735,
      "narren": 7736,
      "portemon": 7737,
      "porzellank": 7738,
      "picnics": 7739,
      "popmusik": 7740,
      "popular": 7741,
      "politely": 7742,
      "suspect": 7743,
      "squeak": 7744,
      "scarce": 7745,
      "snores": 7746,
      "those": 7747,
      "thomas": 7748,
      "treib": 7749,
      "treibe": 7750,
      "walls": 7751,
      "yawning": 7752,
      "yawned": 7753,
      "cherries": 7754,
      "eremit": 7755,
      "erhob": 7756,
      "erholt": 7757,
      "erhohung": 7758,
      "erlauben": 7759,
      "erleichtert": 7760,
      "erfullt": 7761,
      "erfullte": 7762,
      "erfullung": 7763,
      "angenehm": 7764,
      "geduscht": 7765,
      "gefuhlt": 7766,
      "stift": 7767,
      "stimmten": 7768,
      "beharrte": 7769,
      "beangstigen": 7770,
      "beobachte": 7771,
      "beobachten": 7772,
      "beobachtet": 7773,
      "leihe": 7774,
      "leugnest": 7775,
      "schamt": 7776,
      "schaftler": 7777,
      "schimpfen": 7778,
      "weigere": 7779,
      "weigerte": 7780,
      "weigerten": 7781,
      "verbrannte": 7782,
      "verkaufer": 7783,
      "mahlzeiten": 7784,
      "deliver": 7785,
      "delicious": 7786,
      "delicate": 7787,
      "athletic": 7788,
      "ations": 7789,
      "waschbaren": 7790,
      "aufzustehen": 7791,
      "collect": 7792,
      "soeben": 7793,
      "geschenk": 7794,
      "sperrig": 7795,
      "sportlich": 7796,
      "ruiniert": 7797,
      "ruhrt": 7798,
      "botengange": 7799,
      "besuchten": 7800,
      "ausgerastet": 7801,
      "stehts": 7802,
      "motiviert": 7803,
      "motivated": 7804,
      "motivation": 7805,
      "stoppen": 7806,
      "geschichten": 7807,
      "geschichtchen": 7808,
      "geschichtswissen": 7809,
      "niedertrach": 7810,
      "niedergestochen": 7811,
      "cards": 7812,
      "ubertrieb": 7813,
      "raccoons": 7814,
      "freigeschaltet": 7815,
      "growled": 7816,
      "expecting": 7817,
      "kooperativ": 7818,
      "confusing": 7819,
      "computers": 7820,
      "historiker": 7821,
      "heartburn": 7822,
      "smokes": 7823,
      "gelenke": 7824,
      "trostet": 7825,
      "quittung": 7826,
      "disgusting": 7827,
      "bluffing": 7828,
      "gardener": 7829,
      "gardening": 7830,
      "gardeners": 7831,
      "applaudiert": 7832,
      "applaudierte": 7833,
      "applaudierten": 7834,
      "prepare": 7835,
      "vermissten": 7836,
      "kontrolliers": 7837,
      "zeichentrick": 7838,
      "widersetze": 7839,
      "recycelt": 7840,
      "recyceln": 7841,
      "recycelst": 7842,
      "banana": 7843,
      "bananen": 7844,
      "bananas": 7845,
      "schummeln": 7846,
      "schummelst": 7847,
      "schummelte": 7848,
      "puzzlespiel": 7849,
      "astronomie": 7850,
      "butcher": 7851,
      "button": 7852,
      "clocks": 7853,
      "daumen": 7854,
      "dauern": 7855,
      "dorthin": 7856,
      "feind": 7857,
      "feinde": 7858,
      "flipp": 7859,
      "flagge": 7860,
      "gieen": 7861,
      "giebig": 7862,
      "gloated": 7863,
      "glocke": 7864,
      "hicks": 7865,
      "hickse": 7866,
      "jubelte": 7867,
      "jubelten": 7868,
      "kahl": 7869,
      "kaviar": 7870,
      "knabe": 7871,
      "knaben": 7872,
      "latin": 7873,
      "latein": 7874,
      "nesselsucht": 7875,
      "nonsense": 7876,
      "nonsmoker": 7877,
      "priest": 7878,
      "priester": 7879,
      "punkt": 7880,
      "punktlich": 7881,
      "piloten": 7882,
      "pilots": 7883,
      "rutsch": 7884,
      "rutschte": 7885,
      "saschim": 7886,
      "sashimi": 7887,
      "sharp": 7888,
      "sharks": 7889,
      "scolded": 7890,
      "sangerin": 7891,
      "skeptisch": 7892,
      "skeptical": 7893,
      "shouting": 7894,
      "tierlieb": 7895,
      "tuchtig": 7896,
      "ubung": 7897,
      "ubriggeblieben": 7898,
      "vacation": 7899,
      "zittert": 7900,
      "zitronen": 7901,
      "zweck": 7902,
      "zweimal": 7903,
      "zwangen": 7904,
      "zwanzig": 7905,
      "erschreckt": 7906,
      "erschreckend": 7907,
      "enspannt": 7908,
      "inspired": 7909,
      "inspiriert": 7910,
      "anfanger": 7911,
      "anfangerin": 7912,
      "reagier": 7913,
      "reagiert": 7914,
      "reasonable": 7915,
      "geknudde": 7916,
      "gekniffen": 7917,
      "beteten": 7918,
      "belanglos": 7919,
      "bewahren": 7920,
      "bewahrte": 7921,
      "bedienen": 7922,
      "teilen": 7923,
      "teilnehmen": 7924,
      "unbeholfen": 7925,
      "unbedingt": 7926,
      "unvermeid": 7927,
      "unverschamt": 7928,
      "unsozial": 7929,
      "unsociable": 7930,
      "unmoglicher": 7931,
      "leihen": 7932,
      "schatze": 7933,
      "schatzen": 7934,
      "schlauer": 7935,
      "weiche": 7936,
      "weichei": 7937,
      "verbreite": 7938,
      "verbreitet": 7939,
      "matters": 7940,
      "devious": 7941,
      "devasta": 7942,
      "werkzeugkiste": 7943,
      "theory": 7944,
      "theorie": 7945,
      "tragic": 7946,
      "tragisch": 7947,
      "feuchtes": 7948,
      "zuchtete": 7949,
      "zuckerschlecken": 7950,
      "through": 7951,
      "thrilling": 7952,
      "aufstandische": 7953,
      "aufstandischer": 7954,
      "liegst": 7955,
      "solch": 7956,
      "solid": 7957,
      "gesprungen": 7958,
      "gespieben": 7959,
      "gespielt": 7960,
      "spinat": 7961,
      "spinach": 7962,
      "komodien": 7963,
      "komodiant": 7964,
      "lasagne": 7965,
      "lasagna": 7966,
      "rulpse": 7967,
      "rulpste": 7968,
      "brandneu": 7969,
      "heldenhaft": 7970,
      "fuballfreund": 7971,
      "appears": 7972,
      "fordere": 7973,
      "stockbetrunken": 7974,
      "stockbesoffen": 7975,
      "wellenreiter": 7976,
      "wellenreiten": 7977,
      "vorangehen": 7978,
      "beschleunigt": 7979,
      "beschleunigte": 7980,
      "fremdgegangen": 7981,
      "akzepta": 7982,
      "akzeptiere": 7983,
      "fanatic": 7984,
      "fanatiker": 7985,
      "grabt": 7986,
      "begleitete": 7987,
      "concentr": 7988,
      "concerned": 7989,
      "complained": 7990,
      "showered": 7991,
      "schlichtweg": 7992,
      "partys": 7993,
      "partners": 7994,
      "holidays": 7995,
      "bremse": 7996,
      "bremste": 7997,
      "clearly": 7998,
      "mortified": 7999,
      "mortifies": 8000,
      "meldeten": 8001,
      "versteckst": 8002,
      "hinterhaltig": 8003,
      "beruflich": 8004,
      "frostig": 8005,
      "resign": 8006,
      "resigned": 8007,
      "respects": 8008,
      "respektiert": 8009,
      "violin": 8010,
      "violence": 8011,
      "treuherzig": 8012,
      "schmerzlos": 8013,
      "gewannen": 8014,
      "gewisser": 8015,
      "ohrfeige": 8016,
      "pizzas": 8017,
      "pizzaliefer": 8018,
      "schnappte": 8019,
      "schnappchen": 8020,
      "schmeckts": 8021,
      "farbenblind": 8022,
      "farbenfehlsichtig": 8023,
      "chinesin": 8024,
      "chinesisch": 8025,
      "fassungslos": 8026,
      "strafgefangene": 8027,
      "strafgefangener": 8028,
      "verabschiede": 8029,
      "verabschiedet": 8030,
      "mistake": 8031,
      "mistaken": 8032,
      "wahnsinniger": 8033,
      "donnerwetter": 8034,
      "nackenschmerzen": 8035,
      "romantic": 8036,
      "romantisch": 8037,
      "politik": 8038,
      "politics": 8039,
      "beangstigst": 8040,
      "beangstigend": 8041,
      "flattered": 8042,
      "kunstlerisch": 8043,
      "ponyhof": 8044,
      "hauptverkehr": 8045,
      "hauptgeschaftszeit": 8046,
      "analphabetin": 8047,
      "astrology": 8048,
      "astrologie": 8049,
      "heiratete": 8050,
      "australia": 8051,
      "australien": 8052,
      "aggressive": 8053,
      "aggressiv": 8054,
      "konzentrieren": 8055,
      "konzentriere": 8056,
      "adult": 8057,
      "birthday": 8058,
      "baum": 8059,
      "bademantel": 8060,
      "bankrupt": 8061,
      "buckte": 8062,
      "baker": 8063,
      "circle": 8064,
      "closed": 8065,
      "clapped": 8066,
      "clue": 8067,
      "congratul": 8068,
      "crows": 8069,
      "crisy": 8070,
      "disturb": 8071,
      "dichter": 8072,
      "dwarf": 8073,
      "ehefrau": 8074,
      "eures": 8075,
      "ethiop": 8076,
      "flaky": 8077,
      "gitarre": 8078,
      "gorgeous": 8079,
      "glotzen": 8080,
      "hingesehen": 8081,
      "hielten": 8082,
      "honesty": 8083,
      "ilator": 8084,
      "jasager": 8085,
      "jokes": 8086,
      "kasse": 8087,
      "kites": 8088,
      "klempner": 8089,
      "knelt": 8090,
      "kurzem": 8091,
      "kroten": 8092,
      "kontakt": 8093,
      "kumpel": 8094,
      "kundigten": 8095,
      "kredit": 8096,
      "knurrte": 8097,
      "kriechtiere": 8098,
      "linie": 8099,
      "loner": 8100,
      "lernte": 8101,
      "limping": 8102,
      "murrte": 8103,
      "mortal": 8104,
      "nusse": 8105,
      "obese": 8106,
      "oppose": 8107,
      "phantastisch": 8108,
      "pheasant": 8109,
      "pompous": 8110,
      "pummelig": 8111,
      "panting": 8112,
      "pfiff": 8113,
      "pacifist": 8114,
      "prufung": 8115,
      "russen": 8116,
      "russian": 8117,
      "scooter": 8118,
      "slipped": 8119,
      "shrugged": 8120,
      "sundays": 8121,
      "smarter": 8122,
      "screamed": 8123,
      "science": 8124,
      "twice": 8125,
      "tissue": 8126,
      "taub": 8127,
      "tidy": 8128,
      "ublen": 8129,
      "visited": 8130,
      "ventilator": 8131,
      "westen": 8132,
      "wandte": 8133,
      "while": 8134,
      "zirkus": 8135,
      "zundete": 8136,
      "zwerg": 8137,
      "zierlich": 8138,
      "zwolf": 8139,
      "zwinge": 8140,
      "zwangserkrank": 8141,
      "choked": 8142,
      "chubby": 8143,
      "erneut": 8144,
      "errotete": 8145,
      "erwahnen": 8146,
      "erstochen": 8147,
      "erwurgt": 8148,
      "erfreut": 8149,
      "erholten": 8150,
      "ersetzbar": 8151,
      "erquickt": 8152,
      "erfordert": 8153,
      "enemies": 8154,
      "enervierend": 8155,
      "inhaled": 8156,
      "intrigues": 8157,
      "inadequate": 8158,
      "insurance": 8159,
      "inhumane": 8160,
      "insects": 8161,
      "incredible": 8162,
      "injured": 8163,
      "todernst": 8164,
      "isoliert": 8165,
      "anwerben": 8166,
      "anmalen": 8167,
      "annehmbar": 8168,
      "anscheinend": 8169,
      "assume": 8170,
      "assertive": 8171,
      "ittsgelahmt": 8172,
      "heuchelei": 8173,
      "einsiedler": 8174,
      "einsteiger": 8175,
      "einspruch": 8176,
      "einlenken": 8177,
      "eingelenkt": 8178,
      "relieved": 8179,
      "refreshed": 8180,
      "repeat": 8181,
      "recommend": 8182,
      "rejection": 8183,
      "revenge": 8184,
      "recently": 8185,
      "religioser": 8186,
      "receipt": 8187,
      "replaceable": 8188,
      "reptilien": 8189,
      "geholt": 8190,
      "gelohnt": 8191,
      "gedichte": 8192,
      "gefugt": 8193,
      "gedrangt": 8194,
      "gemalt": 8195,
      "gekotzt": 8196,
      "gedemutigt": 8197,
      "gefoltert": 8198,
      "geblinzelt": 8199,
      "gehaltserhohung": 8200,
      "geklatscht": 8201,
      "geohrfeigt": 8202,
      "geeignet": 8203,
      "gefesselt": 8204,
      "stingy": 8205,
      "statt": 8206,
      "stamp": 8207,
      "struggled": 8208,
      "stumpfsinnig": 8209,
      "streichholz": 8210,
      "staggered": 8211,
      "bekannt": 8212,
      "bemitleidenswert": 8213,
      "bevorzuge": 8214,
      "begluckt": 8215,
      "bedurftig": 8216,
      "behilflich": 8217,
      "bemuht": 8218,
      "behandele": 8219,
      "bekifft": 8220,
      "irgendwelche": 8221,
      "arbeitslos": 8222,
      "unlikely": 8223,
      "unnachgiebig": 8224,
      "ungesellig": 8225,
      "unpassend": 8226,
      "unleidlich": 8227,
      "unhandlich": 8228,
      "unbehaglich": 8229,
      "untalentiert": 8230,
      "untrostlich": 8231,
      "universitat": 8232,
      "melodie": 8233,
      "meidet": 8234,
      "medium": 8235,
      "meckerfritze": 8236,
      "lehnst": 8237,
      "leaks": 8238,
      "improbable": 8239,
      "dasselbe": 8240,
      "schalten": 8241,
      "schuchterner": 8242,
      "schadlich": 8243,
      "schicke": 8244,
      "schrager": 8245,
      "schweizer": 8246,
      "schnurren": 8247,
      "schreiner": 8248,
      "schwedisch": 8249,
      "schildkroten": 8250,
      "schuttelte": 8251,
      "ordentlich": 8252,
      "wehren": 8253,
      "wehtun": 8254,
      "weapon": 8255,
      "vernommen": 8256,
      "verneigte": 8257,
      "verwitwet": 8258,
      "verspatet": 8259,
      "veranderte": 8260,
      "verrichtet": 8261,
      "versprechs": 8262,
      "verzweifelt": 8263,
      "verkleinere": 8264,
      "verdienen": 8265,
      "verehrt": 8266,
      "verhandeln": 8267,
      "verschuldet": 8268,
      "verdorben": 8269,
      "veranlagt": 8270,
      "verbeugte": 8271,
      "hosentrager": 8272,
      "novel": 8273,
      "deutlich": 8274,
      "loaded": 8275,
      "negotiate": 8276,
      "necessary": 8277,
      "urlaub": 8278,
      "herbeigefuhrt": 8279,
      "trommel": 8280,
      "trains": 8281,
      "trapped": 8282,
      "zufugen": 8283,
      "zugewinkt": 8284,
      "zugetragen": 8285,
      "zukunft": 8286,
      "ambition": 8287,
      "goofed": 8288,
      "benotigt": 8289,
      "achseln": 8290,
      "rookie": 8291,
      "lippen": 8292,
      "softly": 8293,
      "sodbrennen": 8294,
      "gestatten": 8295,
      "gespendet": 8296,
      "spottbillig": 8297,
      "spendeten": 8298,
      "geruhrt": 8299,
      "derjenige": 8300,
      "sails": 8301,
      "sackgasse": 8302,
      "mythos": 8303,
      "tenacious": 8304,
      "ruppig": 8305,
      "etikett": 8306,
      "braces": 8307,
      "brieftasche": 8308,
      "yourselves": 8309,
      "getauscht": 8310,
      "aussichtslos": 8311,
      "abandon": 8312,
      "abkurzung": 8313,
      "abgelehnt": 8314,
      "abstreiten": 8315,
      "abbiegen": 8316,
      "entferne": 8317,
      "entledigen": 8318,
      "entsprechend": 8319,
      "entsperrt": 8320,
      "comedian": 8321,
      "notwendig": 8322,
      "beruhrend": 8323,
      "henpecked": 8324,
      "antisocial": 8325,
      "waisenkind": 8326,
      "faktum": 8327,
      "fackelt": 8328,
      "forbidden": 8329,
      "angriff": 8330,
      "konsequenzen": 8331,
      "dazwischengehen": 8332,
      "mittags": 8333,
      "mittwoch": 8334,
      "andauernd": 8335,
      "funfundvierzig": 8336,
      "moskau": 8337,
      "modeerscheinung": 8338,
      "gutaussehend": 8339,
      "lethargic": 8340,
      "stolperte": 8341,
      "fotoapparat": 8342,
      "foreigner": 8343,
      "seelennahrung": 8344,
      "outdoors": 8345,
      "vorschriften": 8346,
      "vorausschauend": 8347,
      "winners": 8348,
      "sufficient": 8349,
      "geschuttelt": 8350,
      "protestierte": 8351,
      "protested": 8352,
      "riesiger": 8353,
      "halbiere": 8354,
      "hintrittst": 8355,
      "quarreled": 8356,
      "querschnittsgelahmt": 8357,
      "questions": 8358,
      "furchterlich": 8359,
      "uberflussig": 8360,
      "ubertreibt": 8361,
      "plattenaufleger": 8362,
      "newlyweds": 8363,
      "grotesque": 8364,
      "difficult": 8365,
      "exknacki": 8366,
      "hypocrisy": 8367,
      "maniac": 8368,
      "blutarmut": 8369,
      "kohldampf": 8370,
      "schlafanzug": 8371,
      "offizier": 8372,
      "afroamerikanische": 8373,
      "begreifst": 8374,
      "betreffende": 8375,
      "buchstabieren": 8376,
      "positive": 8377,
      "poems": 8378,
      "potzdonner": 8379,
      "rivale": 8380,
      "zuruckkehren": 8381,
      "perceptive": 8382,
      "persevering": 8383,
      "ruckendeckung": 8384,
      "communist": 8385,
      "openminded": 8386,
      "diesbezuglich": 8387,
      "armbanduhr": 8388,
      "handschellen": 8389,
      "handgelenk": 8390,
      "schlummert": 8391,
      "schlitzohr": 8392,
      "dreihundert": 8393,
      "glatzkopfig": 8394,
      "misleading": 8395,
      "taschentuch": 8396,
      "rettungsschwimmer": 8397,
      "breathing": 8398,
      "catholic": 8399,
      "geburtstag": 8400,
      "gebauchpinselt": 8401,
      "mordsspa": 8402,
      "pantoffelheld": 8403,
      "buckel": 8404,
      "sincere": 8405,
      "speechless": 8406,
      "appreciate": 8407,
      "accurate": 8408,
      "sonntags": 8409,
      "gedauert": 8410,
      "dummkopfe": 8411,
      "obdachlos": 8412,
      "pajamas": 8413,
      "pazifistin": 8414,
      "disappeared": 8415,
      "abenteuerlustig": 8416,
      "describe": 8417,
      "supported": 8418,
      "beerdigungen": 8419,
      "capsized": 8420,
      "kapitulierten": 8421,
      "tatverdachtiger": 8422,
      "caucasian": 8423,
      "cautiously": 8424,
      "wednesday": 8425,
      "selbstgesprache": 8426,
      "minderjahrig": 8427,
      "erstaunlich": 8428,
      "ohrfeigte": 8429,
      "schmeichelst": 8430,
      "druckknopf": 8431,
      "durchsetzungsvermogen": 8432,
      "assistenzarzte": 8433,
      "eventuell": 8434,
      "ehrgeizig": 8435,
      "southpaw": 8436,
      "gestolpert": 8437,
      "embarrassed": 8438,
      "praktikanten": 8439,
      "sternhagelvoll": 8440,
      "bewundernswert": 8441,
      "sympathisch": 8442,
      "fuchsteufelswild": 8443,
      "picknicks": 8444,
      "sniffling": 8445,
      "ertuchtigte": 8446,
      "ausgeflippt": 8447,
      "krankenpflegerin": 8448,
      "portemonnaie": 8449,
      "porzellankiste": 8450,
      "geschichtswissenschaftler": 8451,
      "niedertrachtig": 8452,
      "zeichentrickfilme": 8453,
      "puzzlespielen": 8454,
      "saschimi": 8455,
      "geknuddelt": 8456,
      "unvermeidlich": 8457,
      "devastated": 8458,
      "akzeptabel": 8459,
      "concentrate": 8460,
      "pizzalieferant": 8461,
      "hauptverkehrszeit": 8462,
      "congratulations": 8463,
      "ethiopian": 8464,
      "zwangserkrankung": 8465
    },
    "merges": [
      "c h",
      "e r",
      "e n",
      "i ch",
      "i n",
      "t o",
      "i s",
      "to m",
      "h a",
      "i e",
      "e s",
      "a n",
      "a s",
      "i t",
      "o u",
      "is t",
      "h e",
      "e in",
      "r e",
      "g e",
      "y ou",
      "s t",
      "b e",
      "l l",
      "i r",
      "s ie",
      "o n",
      "a r",
      "t e",
      "u n",
      "a u",
      "m e",
      "l e",
      "s e",
      "ha t",
      "i m",
      "d as",
      "s ch",
      "o r",
      "ich t",
      "w e",
      "in g",
      "v er",
      "m a",
      "n icht",
      "e d",
      "i g",
      "h o",
      "n o",
      "d u",
      "d e",
      "w ir",
      "v e",
      "d o",
      "l o",
      "n e",
      "w er",
      "k e",
      "u r",
      "a t",
      "b in",
      "c k",
      "i d",
      "i h",
      "h er",
      "t he",
      "u s",
      "w as",
      "t r",
      "a l",
      "f e",
      "z u",
      "a m",
      "t h",
      "o m",
      "g o",
      "i er",
      "a ll",
      "in d",
      "b en",
      "g en",
      "w ar",
      "a ch",
      "d en",
      "i ll",
      "an n",
      "au f",
      "ein e",
      "m ich",
      "ha be",
      "ge h",
      "t hat",
      "m ir",
      "c an",
      "a re",
      "d ie",
      "u t",
      "a y",
      "l ie",
      "r o",
      "c o",
      "l i",
      "u ch",
      "ma ch",
      "s o",
      "g es",
      "on t",
      "it s",
      "k ann",
      "s p",
      "s ind",
      "k om",
      "g er",
      "l as",
      "s en",
      "d ich",
      "d er",
      "h r",
      "o k",
      "s a",
      "l d",
      "m y",
      "d id",
      "d ont",
      "m en",
      "t en",
      "th is",
      "r u",
      "a d",
      "l a",
      "s ich",
      "u p",
      "n en",
      "ein en",
      "e t",
      "ih r",
      "her e",
      "b r",
      "s he",
      "b o",
      "you re",
      "on e",
      "t s",
      "t er",
      "no w",
      "b ist",
      "f en",
      "un s",
      "you r",
      "b es",
      "u st",
      "w ie",
      "un g",
      "n t",
      "he l",
      "ge t",
      "a g",
      "ch e",
      "z e",
      "f t",
      "au s",
      "u m",
      "w ill",
      "wer e",
      "h im",
      "h ier",
      "a b",
      "h es",
      "f r",
      "li ke",
      "f u",
      "en t",
      "co me",
      "no t",
      "w or",
      "l u",
      "ih n",
      "b er",
      "h en",
      "i l",
      "l ich",
      "w ho",
      "an t",
      "z t",
      "m ein",
      "g i",
      "w a",
      "ha ve",
      "ho w",
      "ha ben",
      "geh en",
      "h l",
      "i c",
      "st e",
      "the y",
      "b t",
      "h t",
      "w o",
      "ha s",
      "f a",
      "a p",
      "f or",
      "t i",
      "an g",
      "d r",
      "e p",
      "r y",
      "tom s",
      "kom m",
      "k on",
      "d a",
      "m it",
      "ma l",
      "an d",
      "las s",
      "f un",
      "m o",
      "g ut",
      "ne ed",
      "can t",
      "u se",
      "m us",
      "n d",
      "that s",
      "hel p",
      "le t",
      "l y",
      "s to",
      "ver y",
      "o f",
      "w hat",
      "lo ve",
      "ch t",
      "d ir",
      "f o",
      "n ach",
      "t a",
      "ch en",
      "w ay",
      "un d",
      "wer de",
      "mach t",
      "te d",
      "se e",
      "kom men",
      "b le",
      "b us",
      "h or",
      "im m",
      "i ck",
      "m ar",
      "ou t",
      "w ant",
      "is ch",
      "lo ok",
      "k now",
      "b it",
      "wor k",
      "w n",
      "re i",
      "we ll",
      "ma g",
      "k en",
      "l t",
      "p p",
      "s uch",
      "br au",
      "f er",
      "wir d",
      "v or",
      "w in",
      "ho me",
      "s u",
      "be it",
      "j o",
      "al k",
      "fe e",
      "a ck",
      "e uch",
      "o p",
      "se l",
      "ha st",
      "ie l",
      "lo s",
      "h ur",
      "u g",
      "re d",
      "ar beit",
      "g an",
      "m eine",
      "p le",
      "t ur",
      "geh t",
      "lie be",
      "l es",
      "l au",
      "te t",
      "sch w",
      "ig t",
      "ta ke",
      "d y",
      "s ein",
      "ou nd",
      "ges ch",
      "et zt",
      "p ro",
      "le ts",
      "lu ck",
      "r ie",
      "tr au",
      "j etzt",
      "n er",
      "ha l",
      "ha use",
      "a de",
      "g t",
      "i ve",
      "n ie",
      "s ing",
      "z a",
      "as e",
      "h in",
      "q u",
      "z en",
      "st ar",
      "tr y",
      "al t",
      "bus y",
      "c ar",
      "f ur",
      "u ber",
      "w ur",
      "ou s",
      "re ad",
      "i de",
      "w it",
      "to o",
      "an k",
      "bes ch",
      "r a",
      "k ein",
      "ig ht",
      "a way",
      "f re",
      "f all",
      "mach en",
      "sto p",
      "bit te",
      "se t",
      "ke ep",
      "ger ade",
      "a ft",
      "c e",
      "j ust",
      "no ch",
      "a ve",
      "d ar",
      "se hr",
      "sa w",
      "f as",
      "p e",
      "p l",
      "t y",
      "ne w",
      "b ack",
      "o d",
      "ver such",
      "gi ve",
      "ple ase",
      "f ach",
      "o l",
      "is s",
      "sch u",
      "las sen",
      "a in",
      "h n",
      "se id",
      "we i",
      "go t",
      "ic e",
      "e very",
      "t ig",
      "v ed",
      "is h",
      "on g",
      "wer den",
      "mus s",
      "besch aft",
      "c ou",
      "c all",
      "g ro",
      "n a",
      "u ck",
      "z ur",
      "in k",
      "sch on",
      "do wn",
      "ges e",
      "beschaft igt",
      "d i",
      "ha r",
      "te ll",
      "wur de",
      "e x",
      "se i",
      "or t",
      "ver l",
      "all e",
      "gi b",
      "fa hr",
      "kon nen",
      "h y",
      "m an",
      "es t",
      "an ge",
      "hat te",
      "we g",
      "hel fen",
      "ble i",
      "gese hen",
      "u te",
      "ein fach",
      "be i",
      "ne h",
      "a k",
      "e at",
      "f ound",
      "l ang",
      "s er",
      "ha pp",
      "sich er",
      "b l",
      "k o",
      "m er",
      "is e",
      "ha te",
      "sch la",
      "lo st",
      "za hl",
      "in e",
      "ge fun",
      "her es",
      "wa it",
      "brau che",
      "fee l",
      "gefun den",
      "g luck",
      "t un",
      "w r",
      "is nt",
      "ge he",
      "st ay",
      "ma y",
      "do g",
      "en d",
      "ll o",
      "sch ne",
      "v iel",
      "le d",
      "we it",
      "ier en",
      "bo dy",
      "of f",
      "a f",
      "f an",
      "g r",
      "st u",
      "we h",
      "h un",
      "ge macht",
      "be g",
      "be t",
      "le ep",
      "at ch",
      "ih m",
      "ier t",
      "co ld",
      "mar y",
      "a te",
      "a me",
      "k am",
      "ha d",
      "se hen",
      "ih nen",
      "b uch",
      "m ust",
      "p o",
      "t alk",
      "v o",
      "as k",
      "le ben",
      "tr ust",
      "al one",
      "bo ok",
      "r i",
      "t here",
      "un ter",
      "de m",
      "komm t",
      "zur uck",
      "happ y",
      "d eine",
      "d ay",
      "p er",
      "w alk",
      "le ave",
      "se d",
      "sp a",
      "dar f",
      "c ry",
      "h ung",
      "i ous",
      "o t",
      "p r",
      "v es",
      "w hy",
      "er n",
      "kann st",
      "ru ck",
      "ag ain",
      "has se",
      "g ing",
      "h le",
      "k r",
      "ha bt",
      "ge fall",
      "be tr",
      "ne t",
      "j a",
      "k ind",
      "s w",
      "s ay",
      "u e",
      "to r",
      "es sen",
      "ver trau",
      "nicht s",
      "ach t",
      "wie der",
      "ze it",
      "schu ld",
      "c on",
      "c om",
      "h is",
      "h il",
      "k eine",
      "u de",
      "v on",
      "w on",
      "w atch",
      "st and",
      "au to",
      "th ing",
      "sp r",
      "las st",
      "ag t",
      "fa ir",
      "op en",
      "gan gen",
      "rie d",
      "fas t",
      "verl or",
      "b ro",
      "d ein",
      "h und",
      "m and",
      "an der",
      "ho f",
      "lo t",
      "at er",
      "all ein",
      "die s",
      "lie bt",
      "br ing",
      "fr a",
      "hur t",
      "fan gen",
      "c t",
      "m ann",
      "n imm",
      "p as",
      "r ight",
      "it e",
      "sch au",
      "the m",
      "ti me",
      "imm er",
      "c are",
      "d an",
      "l auf",
      "s it",
      "s ho",
      "ar m",
      "le id",
      "sch rei",
      "du m",
      "go od",
      "ger n",
      "who s",
      "tur n",
      "star t",
      "schne ll",
      "j e",
      "k alt",
      "l er",
      "o ver",
      "s ur",
      "he ar",
      "lo se",
      "ne u",
      "ach e",
      "kon n",
      "hal ten",
      "weit er",
      "kr ank",
      "c ame",
      "k id",
      "n ice",
      "s leep",
      "t ut",
      "w us",
      "z y",
      "ha nd",
      "re cht",
      "ge ld",
      "ge gangen",
      "st er",
      "un ge",
      "ma de",
      "la te",
      "sel f",
      "les s",
      "neh men",
      "e as",
      "f ind",
      "n ung",
      "r en",
      "r ig",
      "in s",
      "is sen",
      "sch l",
      "ig en",
      "ger ne",
      "they re",
      "what s",
      "fo llo",
      "hor en",
      "gluck lich",
      "g u",
      "h ou",
      "k new",
      "p t",
      "r un",
      "w ent",
      "z ie",
      "au ch",
      "war um",
      "so ll",
      "sa h",
      "et was",
      "pl an",
      "verlor en",
      "follo w",
      "p ar",
      "s am",
      "w heres",
      "er in",
      "st ill",
      "fe lt",
      "geh ort",
      "sp at",
      "ru h",
      "fu hle",
      "har d",
      "ern st",
      "eas y",
      "b ier",
      "b ad",
      "d re",
      "d ing",
      "f ish",
      "g h",
      "h i",
      "j ap",
      "k es",
      "n ur",
      "an den",
      "he d",
      "sch lie",
      "icht ig",
      "ma d",
      "ho l",
      "all es",
      "so me",
      "ges sen",
      "ok ing",
      "bo y",
      "ab out",
      "for t",
      "jo b",
      "gan z",
      "nie mand",
      "wit h",
      "cou ld",
      "e ar",
      "g l",
      "k l",
      "k us",
      "p ut",
      "s m",
      "s we",
      "w ont",
      "ch te",
      "en jo",
      "ha n",
      "ge l",
      "ge ben",
      "do es",
      "lo ves",
      "up set",
      "one y",
      "every one",
      "fahr en",
      "wr ong",
      "beg in",
      "sw im",
      "konn te",
      "jap an",
      "enjo y",
      "f le",
      "f at",
      "k auf",
      "m is",
      "m oney",
      "t as",
      "y es",
      "ie t",
      "es e",
      "es s",
      "re t",
      "ge kommen",
      "ge win",
      "sie ht",
      "un k",
      "le ft",
      "sch er",
      "ho pe",
      "de t",
      "zu m",
      "sa g",
      "did nt",
      "bes t",
      "fu hl",
      "lu g",
      "fo l",
      "see m",
      "a ted",
      "b re",
      "c at",
      "f rei",
      "h ug",
      "i k",
      "m ude",
      "s how",
      "s ick",
      "t u",
      "re ich",
      "ge b",
      "im men",
      "do ch",
      "fe hl",
      "li fe",
      "sa fe",
      "get an",
      "ag re",
      "wa hr",
      "fer tig",
      "pl ay",
      "hung ry",
      "b i",
      "b st",
      "c le",
      "m t",
      "m or",
      "n ing",
      "p an",
      "ein t",
      "me l",
      "das s",
      "we il",
      "do or",
      "tr o",
      "war ten",
      "fu l",
      "ti on",
      "dr unk",
      "ken ne",
      "qu iet",
      "read y",
      "versuch en",
      "ruck t",
      "b y",
      "b ar",
      "c lose",
      "f i",
      "g ht",
      "i a",
      "k t",
      "l ist",
      "m ine",
      "o ld",
      "p ay",
      "r t",
      "s hes",
      "re at",
      "un ken",
      "sch e",
      "we t",
      "ver ste",
      "ne ver",
      "ih re",
      "li ve",
      "li kes",
      "ges agt",
      "sp iel",
      "kom me",
      "ru fen",
      "your self",
      "ti red",
      "hur ry",
      "arbeit en",
      "set z",
      "lang weil",
      "ster ben",
      "schl us",
      "b u",
      "b or",
      "c ut",
      "e il",
      "g lau",
      "h ut",
      "k at",
      "m iss",
      "n ut",
      "s k",
      "s in",
      "w einen",
      "an y",
      "an ger",
      "he it",
      "ll e",
      "sie h",
      "du r",
      "was nt",
      "th ink",
      "co ok",
      "co ol",
      "sp e",
      "ap p",
      "ang st",
      "les en",
      "zahl en",
      "lauf en",
      "a c",
      "b ig",
      "r ein",
      "s on",
      "s or",
      "t v",
      "u hr",
      "w i",
      "w ach",
      "w here",
      "z o",
      "es se",
      "ge d",
      "ge br",
      "be d",
      "no body",
      "fe l",
      "go ing",
      "die se",
      "lie d",
      "mar ia",
      "look s",
      "su re",
      "hur ts",
      "schw immen",
      "fre und",
      "blei b",
      "blei ben",
      "per fe",
      "kid ding",
      "dre am",
      "f au",
      "j ed",
      "k iss",
      "t an",
      "w un",
      "x i",
      "he ute",
      "st anden",
      "be at",
      "ir st",
      "me an",
      "me hr",
      "ma ke",
      "ho t",
      "ur z",
      "ier e",
      "war te",
      "ro w",
      "ger e",
      "ter n",
      "che ck",
      "um mer",
      "ab le",
      "fr au",
      "wa gen",
      "ste hen",
      "hin ter",
      "fre e",
      "stu den",
      "gefall t",
      "schuld ig",
      "dum m",
      "swe et",
      "fuhl te",
      "gebr acht",
      "f f",
      "f in",
      "h um",
      "m einen",
      "n g",
      "o b",
      "p a",
      "r ich",
      "r an",
[...]
